{
  "version": "1.0",
  "truncation": {
    "direction": "Right",
    "max_length": 128,
    "strategy": "LongestFirst",
    "stride": 0
  },
  "padding": null,
  "added_tokens": [
    {
      "id": 0,
      "content": "<s>",
      "single_word": false,
      "lstrip": false,
      "rstrip": false,
      "normalized": false,
      "special": true
    },
    {
      "id": 1,
      "content": "<pad>",
      "single_word": false,
      "lstrip": false,
      "rstrip": false,
      "normalized": false,
      "special": true
    },
    {
      "id": 2,
      "content": "</s>",
      "single_word": false,
      "lstrip": false,
      "rstrip": false,
      "normalized": false,
      "special": true
    },
    {
      "id": 3,
      "content": "<unk>",
      "single_word": false,
      "lstrip": false,
      "rstrip": false,
      "normalized": false,
      "special": true
    },
    {
      "id": 4,
      "content": "<mask>",
      "single_word": false,
      "lstrip": false,
      "rstrip": false,
      "normalized": false,
      "special": true
    }
  ],
  "normalizer": {
    "type": "Sequence",
    "normalizers": [
      {
        "type": "NFKC"
      },
      {
        "type": "BertNormalizer",
        "clean_text": true,
        "handle_chinese_chars": true,
        "strip_accents": false,
        "lowercase": true
      },
      {
        "type": "Replace",
        "pattern": {
          "Regex": "(\\W)?@usuario(\\W)"
        },
        "content": " @usuario "
      },
      {
        "type": "Replace",
        "pattern": {
          "String": "hashtag"
        },
        "content": " hashtag "
      },
      {
        "type": "Replace",
        "pattern": {
          "Regex": "(\\W)url(\\W)"
        },
        "content": " url "
      },
      {
        "type": "Replace",
        "pattern": {
          "String": "http://url"
        },
        "content": " url "
      }
    ]
  },
  "pre_tokenizer": {
    "type": "Metaspace",
    "replacement": "▁",
    "prepend_scheme": "always",
    "split": true
  },
  "post_processor": {
    "type": "RobertaProcessing",
    "sep": [
      "</s>",
      2
    ],
    "cls": [
      "<s>",
      0
    ],
    "trim_offsets": true,
    "add_prefix_space": true
  },
  "decoder": {
    "type": "Metaspace",
    "replacement": "▁",
    "prepend_scheme": "always",
    "split": true
  },
  "model": {
    "type": "BPE",
    "dropout": null,
    "unk_token": null,
    "continuing_subword_prefix": null,
    "end_of_word_suffix": null,
    "fuse_unk": false,
    "byte_fallback": false,
    "ignore_merges": false,
    "vocab": {
      "<s>": 0,
      "<pad>": 1,
      "</s>": 2,
      "<unk>": 3,
      "<mask>": 4,
      "!": 5,
      "\"": 6,
      "#": 7,
      "$": 8,
      "%": 9,
      "&": 10,
      "'": 11,
      "(": 12,
      ")": 13,
      "*": 14,
      "+": 15,
      ",": 16,
      "-": 17,
      ".": 18,
      "/": 19,
      "0": 20,
      "1": 21,
      "2": 22,
      "3": 23,
      "4": 24,
      "5": 25,
      "6": 26,
      "7": 27,
      "8": 28,
      "9": 29,
      ":": 30,
      ";": 31,
      "=": 32,
      "?": 33,
      "@": 34,
      "[": 35,
      "\\": 36,
      "]": 37,
      "^": 38,
      "_": 39,
      "`": 40,
      "a": 41,
      "b": 42,
      "c": 43,
      "d": 44,
      "e": 45,
      "f": 46,
      "g": 47,
      "h": 48,
      "i": 49,
      "j": 50,
      "k": 51,
      "l": 52,
      "m": 53,
      "n": 54,
      "o": 55,
      "p": 56,
      "q": 57,
      "r": 58,
      "s": 59,
      "t": 60,
      "u": 61,
      "v": 62,
      "w": 63,
      "x": 64,
      "y": 65,
      "z": 66,
      "|": 67,
      "¡": 68,
      "¿": 69,
      "à": 70,
      "á": 71,
      "â": 72,
      "ã": 73,
      "ä": 74,
      "ç": 75,
      "è": 76,
      "é": 77,
      "ê": 78,
      "ì": 79,
      "í": 80,
      "ï": 81,
      "ñ": 82,
      "ò": 83,
      "ó": 84,
      "ô": 85,
      "õ": 86,
      "ö": 87,
      "ù": 88,
      "ú": 89,
      "ü": 90,
      "ğ": 91,
      "ı": 92,
      "ł": 93,
      "ş": 94,
      "ɪ": 95,
      "ɴ": 96,
      "ʀ": 97,
      "ʟ": 98,
      "̄": 99,
      "̇": 100,
      "̶": 101,
      "α": 102,
      "ι": 103,
      "а": 104,
      "б": 105,
      "в": 106,
      "д": 107,
      "е": 108,
      "и": 109,
      "к": 110,
      "л": 111,
      "м": 112,
      "н": 113,
      "о": 114,
      "п": 115,
      "р": 116,
      "с": 117,
      "т": 118,
      "у": 119,
      "я": 120,
      "،": 121,
      "أ": 122,
      "ب": 123,
      "ة": 124,
      "ت": 125,
      "ج": 126,
      "ح": 127,
      "خ": 128,
      "د": 129,
      "ر": 130,
      "ز": 131,
      "س": 132,
      "ش": 133,
      "ص": 134,
      "ط": 135,
      "ع": 136,
      "ف": 137,
      "ق": 138,
      "ك": 139,
      "ل": 140,
      "م": 141,
      "ن": 142,
      "ه": 143,
      "و": 144,
      "ى": 145,
      "ي": 146,
      "َ": 147,
      "ک": 148,
      "ں": 149,
      "ہ": 150,
      "ی": 151,
      "ے": 152,
      "ं": 153,
      "क": 154,
      "ग": 155,
      "ज": 156,
      "त": 157,
      "द": 158,
      "न": 159,
      "प": 160,
      "ब": 161,
      "म": 162,
      "य": 163,
      "र": 164,
      "ल": 165,
      "स": 166,
      "ह": 167,
      "ा": 168,
      "ि": 169,
      "ी": 170,
      "े": 171,
      "ै": 172,
      "ो": 173,
      "्": 174,
      "க": 175,
      "த": 176,
      "ம": 177,
      "ா": 178,
      "ி": 179,
      "ு": 180,
      "்": 181,
      "ก": 182,
      "ข": 183,
      "ค": 184,
      "ง": 185,
      "จ": 186,
      "ช": 187,
      "ด": 188,
      "ต": 189,
      "ท": 190,
      "น": 191,
      "บ": 192,
      "ป": 193,
      "พ": 194,
      "ม": 195,
      "ย": 196,
      "ร": 197,
      "ล": 198,
      "ว": 199,
      "ส": 200,
      "ห": 201,
      "อ": 202,
      "ะ": 203,
      "ั": 204,
      "า": 205,
      "ิ": 206,
      "ี": 207,
      "ื": 208,
      "ุ": 209,
      "ู": 210,
      "เ": 211,
      "แ": 212,
      "ใ": 213,
      "ไ": 214,
      "็": 215,
      "่": 216,
      "้": 217,
      "์": 218,
      "ᄏ": 219,
      "ᅠ": 220,
      "ᅲ": 221,
      "ᥱ": 222,
      "ᴀ": 223,
      "ᴅ": 224,
      "ᴇ": 225,
      "ᴏ": 226,
      "ᴛ": 227,
      "⃣": 228,
      "→": 229,
      "─": 230,
      "━": 231,
      "┃": 232,
      "┓": 233,
      "═": 234,
      "▁": 235,
      "█": 236,
      "▶": 237,
      "►": 238,
      "★": 239,
      "☆": 240,
      "♪": 241,
      "♫": 242,
      "⚠": 243,
      "✔": 244,
      "❣": 245,
      "➡": 246,
      "⠀": 247,
      "⬇": 248,
      "、": 249,
      "。": 250,
      "「": 251,
      "」": 252,
      "【": 253,
      "】": 254,
      "あ": 255,
      "い": 256,
      "う": 257,
      "え": 258,
      "お": 259,
      "か": 260,
      "が": 261,
      "き": 262,
      "く": 263,
      "け": 264,
      "こ": 265,
      "ご": 266,
      "さ": 267,
      "し": 268,
      "す": 269,
      "そ": 270,
      "た": 271,
      "だ": 272,
      "ち": 273,
      "っ": 274,
      "つ": 275,
      "て": 276,
      "で": 277,
      "と": 278,
      "ど": 279,
      "な": 280,
      "に": 281,
      "ね": 282,
      "の": 283,
      "は": 284,
      "ま": 285,
      "み": 286,
      "め": 287,
      "も": 288,
      "ゃ": 289,
      "や": 290,
      "よ": 291,
      "ら": 292,
      "り": 293,
      "る": 294,
      "れ": 295,
      "を": 296,
      "ん": 297,
      "゚": 298,
      "ア": 299,
      "イ": 300,
      "カ": 301,
      "キ": 302,
      "ク": 303,
      "コ": 304,
      "シ": 305,
      "ジ": 306,
      "ス": 307,
      "タ": 308,
      "チ": 309,
      "ッ": 310,
      "テ": 311,
      "ト": 312,
      "ド": 313,
      "フ": 314,
      "プ": 315,
      "マ": 316,
      "メ": 317,
      "ャ": 318,
      "ラ": 319,
      "リ": 320,
      "ル": 321,
      "レ": 322,
      "ロ": 323,
      "ン": 324,
      "・": 325,
      "人": 326,
      "日": 327,
      "生": 328,
      "가": 329,
      "갓": 330,
      "게": 331,
      "고": 332,
      "그": 333,
      "기": 334,
      "김": 335,
      "나": 336,
      "년": 337,
      "는": 338,
      "니": 339,
      "다": 340,
      "단": 341,
      "대": 342,
      "더": 343,
      "도": 344,
      "드": 345,
      "들": 346,
      "라": 347,
      "랑": 348,
      "레": 349,
      "로": 350,
      "리": 351,
      "마": 352,
      "만": 353,
      "무": 354,
      "미": 355,
      "민": 356,
      "방": 357,
      "보": 358,
      "븐": 359,
      "사": 360,
      "생": 361,
      "서": 362,
      "세": 363,
      "소": 364,
      "수": 365,
      "스": 366,
      "시": 367,
      "아": 368,
      "어": 369,
      "에": 370,
      "엑": 371,
      "여": 372,
      "영": 373,
      "오": 374,
      "요": 375,
      "우": 376,
      "원": 377,
      "은": 378,
      "을": 379,
      "의": 380,
      "이": 381,
      "인": 382,
      "일": 383,
      "자": 384,
      "정": 385,
      "제": 386,
      "주": 387,
      "즈": 388,
      "지": 389,
      "진": 390,
      "크": 391,
      "타": 392,
      "탄": 393,
      "태": 394,
      "트": 395,
      "하": 396,
      "한": 397,
      "해": 398,
      "현": 399,
      "호": 400,
      "🎙": 401,
      "🏟": 402,
      "👁": 403,
      "🗣": 404,
      "▁e": 405,
      "ar": 406,
      "▁d": 407,
      "▁c": 408,
      "mo": 409,
      "▁p": 410,
      "▁l": 411,
      "▁a": 412,
      "▁de": 413,
      "io": 414,
      "▁s": 415,
      "er": 416,
      "as": 417,
      "en": 418,
      "▁m": 419,
      "us": 420,
      "an": 421,
      "ji": 422,
      "▁emo": 423,
      "▁emoji": 424,
      "▁t": 425,
      "os": 426,
      "ario": 427,
      "usu": 428,
      "usuario": 429,
      "@usuario": 430,
      "▁@usuario": 431,
      "ue": 432,
      "or": 433,
      "on": 434,
      "▁h": 435,
      "▁u": 436,
      "ta": 437,
      "es": 438,
      "▁q": 439,
      "do": 440,
      "▁n": 441,
      "▁es": 442,
      "▁que": 443,
      "in": 444,
      "▁y": 445,
      "▁la": 446,
      "▁v": 447,
      "re": 448,
      "rl": 449,
      "al": 450,
      "▁url": 451,
      "▁en": 452,
      "▁f": 453,
      "ci": 454,
      "▁b": 455,
      "te": 456,
      "ara": 457,
      "is": 458,
      "▁el": 459,
      "da": 460,
      "▁con": 461,
      "▁has": 462,
      "ra": 463,
      "▁no": 464,
      "tag": 465,
      "▁hash": 466,
      "▁hashtag": 467,
      "to": 468,
      "ic": 469,
      "▁g": 470,
      "▁un": 471,
      "..": 472,
      "ien": 473,
      "▁me": 474,
      "▁se": 475,
      "ro": 476,
      "▁o": 477,
      "ón": 478,
      "ol": 479,
      "ja": 480,
      "▁cara": 481,
      "▁ha": 482,
      "ando": 483,
      "le": 484,
      "ti": 485,
      "la": 486,
      "▁co": 487,
      "mp": 488,
      "▁por": 489,
      "de": 490,
      "▁re": 491,
      "▁al": 492,
      "un": 493,
      "ch": 494,
      "▁r": 495,
      "▁lo": 496,
      "▁los": 497,
      "▁to": 498,
      "▁per": 499,
      "el": 500,
      "▁i": 501,
      "▁si": 502,
      "ui": 503,
      "ri": 504,
      "▁in": 505,
      "mos": 506,
      "▁mi": 507,
      "▁j": 508,
      "ora": 509,
      "ma": 510,
      "▁.": 511,
      "ia": 512,
      "▁para": 513,
      "go": 514,
      "▁cu": 515,
      "▁te": 516,
      "ía": 517,
      "lo": 518,
      "ca": 519,
      "▁est": 520,
      "▁ca": 521,
      "dos": 522,
      "▁su": 523,
      "ción": 524,
      "▁del": 525,
      "ion": 526,
      "ente": 527,
      "ba": 528,
      "▁las": 529,
      "jaja": 530,
      "▁una": 531,
      "di": 532,
      "vi": 533,
      "▁man": 534,
      "▁ma": 535,
      "▁le": 536,
      "ás": 537,
      "era": 538,
      "mb": 539,
      "iendo": 540,
      "...": 541,
      "dad": 542,
      "▁mu": 543,
      "▁son": 544,
      "cu": 545,
      "mi": 546,
      "▁des": 547,
      "▁w": 548,
      "ga": 549,
      "res": 550,
      "ec": 551,
      "▁an": 552,
      "me": 553,
      "co": 554,
      "ent": 555,
      "▁di": 556,
      "!!": 557,
      "▁vi": 558,
      "gu": 559,
      "▁yo": 560,
      "▁th": 561,
      "oy": 562,
      "cia": 563,
      "▁pa": 564,
      "▁ch": 565,
      "▁mo": 566,
      "tr": 567,
      "que": 568,
      "▁ll": 569,
      "ica": 570,
      "▁cora": 571,
      "it": 572,
      "▁coraz": 573,
      "ce": 574,
      "ero": 575,
      "▁\"": 576,
      "▁ten": 577,
      "▁1": 578,
      "▁qu": 579,
      "▁esta": 580,
      "jo": 581,
      "▁como": 582,
      "▁pero": 583,
      "▁na": 584,
      "za": 585,
      "tu": 586,
      "▁pro": 587,
      "▁más": 588,
      "▁pi": 589,
      "▁llor": 590,
      "isa": 591,
      "▁so": 592,
      "▁ser": 593,
      "▁ver": 594,
      "lar": 595,
      "▁as": 596,
      "ter": 597,
      "ran": 598,
      "tra": 599,
      "ab": 600,
      "▁ya": 601,
      "▁ap": 602,
      "▁2": 603,
      "▁ex": 604,
      "▁ar": 605,
      "ues": 606,
      "▁corazón": 607,
      "ing": 608,
      "cion": 609,
      "tos": 610,
      "▁llorando": 611,
      "▁po": 612,
      "▁par": 613,
      "il": 614,
      "pa": 615,
      "▁risa": 616,
      "tes": 617,
      "va": 618,
      "▁sonr": 619,
      "jos": 620,
      "tas": 621,
      "tar": 622,
      "▁qui": 623,
      "▁tu": 624,
      "▁bu": 625,
      "ve": 626,
      "ico": 627,
      "▁va": 628,
      "ul": 629,
      "ana": 630,
      "▁fa": 631,
      "das": 632,
      "ono": 633,
      "ir": 634,
      "se": 635,
      "▁sal": 636,
      "án": 637,
      "én": 638,
      "dio": 639,
      "▁pas": 640,
      "son": 641,
      "▁fu": 642,
      "▁the": 643,
      "vo": 644,
      "ez": 645,
      "ina": 646,
      "▁pue": 647,
      "▁ni": 648,
      "tor": 649,
      "▁k": 650,
      "▁sonriendo": 651,
      "▁ro": 652,
      "ten": 653,
      "▁ojos": 654,
      "qui": 655,
      "▁pe": 656,
      "▁sol": 657,
      "▁todo": 658,
      "▁ti": 659,
      "dor": 660,
      "cer": 661,
      "cha": 662,
      "men": 663,
      "ver": 664,
      "▁tra": 665,
      "▁person": 666,
      "tro": 667,
      "sa": 668,
      "▁esto": 669,
      "der": 670,
      "▁ta": 671,
      "▁ah": 672,
      "▁li": 673,
      "li": 674,
      "▁jaja": 675,
      "emp": 676,
      "so": 677,
      "▁pre": 678,
      "▁tien": 679,
      "▁buen": 680,
      "mente": 681,
      "no": 682,
      "lan": 683,
      "▁ab": 684,
      "▁ac": 685,
      "▁hab": 686,
      "gar": 687,
      "▁res": 688,
      "▁cas": 689,
      "ur": 690,
      "▁mis": 691,
      "▁sin": 692,
      "▁mar": 693,
      "▁da": 694,
      "▁nos": 695,
      "ble": 696,
      "▁este": 697,
      "▁tan": 698,
      "ño": 699,
      "▁mano": 700,
      "cho": 701,
      "▁piel": 702,
      "▁hay": 703,
      "si": 704,
      "ha": 705,
      "▁cuando": 706,
      "per": 707,
      "▁comp": 708,
      "ud": 709,
      "▁tono": 710,
      "▁(": 711,
      "ru": 712,
      "ios": 713,
      "iz": 714,
      "▁pu": 715,
      "▁-": 716,
      "▁¿": 717,
      "▁clar": 718,
      "▁com": 719,
      "▁cre": 720,
      "qu": 721,
      "▁ra": 722,
      "▁he": 723,
      "pe": 724,
      "po": 725,
      "tan": 726,
      "▁can": 727,
      "cias": 728,
      "▁gra": 729,
      "▁claro": 730,
      "bre": 731,
      "▁pen": 732,
      "ice": 733,
      "▁cor": 734,
      "▁sa": 735,
      "las": 736,
      "oo": 737,
      "▁men": 738,
      "▁ne": 739,
      "▁sab": 740,
      "idad": 741,
      "ier": 742,
      "ales": 743,
      "les": 744,
      "▁lle": 745,
      "▁ven": 746,
      "▁hoy": 747,
      "▁todos": 748,
      "!!!": 749,
      "den": 750,
      "des": 751,
      "je": 752,
      "és": 753,
      "▁manos": 754,
      "▁está": 755,
      "min": 756,
      "00": 757,
      "jor": 758,
      "▁porque": 759,
      "los": 760,
      "▁car": 761,
      "??": 762,
      "man": 763,
      "ños": 764,
      "▁mal": 765,
      "▁do": 766,
      "▁ba": 767,
      "▁mejor": 768,
      "▁bo": 769,
      "▁ent": 770,
      "▁ho": 771,
      "ita": 772,
      "be": 773,
      "▁eso": 774,
      "▁bien": 775,
      "▁mas": 776,
      "▁dis": 777,
      "▁for": 778,
      "▁of": 779,
      "mas": 780,
      "erte": 781,
      "ones": 782,
      "▁día": 783,
      "mar": 784,
      "du": 785,
      "eces": 786,
      "ici": 787,
      "ín": 788,
      "▁go": 789,
      "▁ju": 790,
      "ras": 791,
      "▁qué": 792,
      "▁persona": 793,
      "▁sus": 794,
      "▁imp": 795,
      "▁be": 796,
      "▁cos": 797,
      "ciones": 798,
      "▁fel": 799,
      "▁pres": 800,
      "▁amo": 801,
      "▁ban": 802,
      "ren": 803,
      "▁3": 804,
      "▁col": 805,
      "▁hacer": 806,
      "ts": 807,
      "▁¡": 808,
      "gun": 809,
      "▁and": 810,
      "▁medio": 811,
      "▁rev": 812,
      "▁cal": 813,
      "ún": 814,
      "▁lu": 815,
      "▁así": 816,
      "▁nada": 817,
      "▁gran": 818,
      "ista": 819,
      "ña": 820,
      "▁pri": 821,
      "▁vo": 822,
      "▁or": 823,
      "▁fue": 824,
      "ber": 825,
      "gan": 826,
      "na": 827,
      "▁muy": 828,
      "▁us": 829,
      "▁fr": 830,
      "▁fin": 831,
      "ión": 832,
      "iento": 833,
      "▁hace": 834,
      "▁les": 835,
      "▁on": 836,
      "▁vida": 837,
      "▁tiene": 838,
      "car": 839,
      "ho": 840,
      "▁ami": 841,
      "ías": 842,
      "ere": 843,
      "empre": 844,
      "▁estoy": 845,
      "ces": 846,
      "mbi": 847,
      "▁solo": 848,
      "▁x": 849,
      "▁ve": 850,
      "▁dor": 851,
      "▁quiero": 852,
      "▁nues": 853,
      "▁siempre": 854,
      "▁pr": 855,
      "▁gente": 856,
      "▁emp": 857,
      "tal": 858,
      "▁fav": 859,
      "▁20": 860,
      "▁tengo": 861,
      "▁ahora": 862,
      "ito": 863,
      "et": 864,
      "ado": 865,
      "por": 866,
      "▁pol": 867,
      "gui": 868,
      "▁san": 869,
      "▁gracias": 870,
      "▁ter": 871,
      "gra": 872,
      "▁ay": 873,
      "o,": 874,
      "che": 875,
      "▁is": 876,
      "▁you": 877,
      "▁hi": 878,
      "▁fal": 879,
      "▁nue": 880,
      "ena": 881,
      "▁gan": 882,
      "▁fo": 883,
      "pu": 884,
      "▁don": 885,
      "ven": 886,
      "▁favor": 887,
      "dera": 888,
      "dose": 889,
      "▁mun": 890,
      "id": 891,
      "uel": 892,
      "▁her": 893,
      "for": 894,
      "iste": 895,
      "zo": 896,
      "▁pon": 897,
      "aa": 898,
      "ís": 899,
      "th": 900,
      "▁dos": 901,
      "olvi": 902,
      "▁gus": 903,
      "▁fuerte": 904,
      "20": 905,
      "con": 906,
      "tros": 907,
      "ke": 908,
      "▁:": 909,
      "▁esp": 910,
      "▁deci": 911,
      "▁hacia": 912,
      "▁gu": 913,
      "▁é": 914,
      "endo": 915,
      "▁,": 916,
      "mer": 917,
      "ona": 918,
      "bajo": 919,
      "enta": 920,
      "encia": 921,
      "▁fe": 922,
      "▁sobre": 923,
      "▁voy": 924,
      "▁hu": 925,
      "▁estar": 926,
      "ll": 927,
      "jer": 928,
      "van": 929,
      "▁años": 930,
      "▁ir": 931,
      "▁au": 932,
      "bo": 933,
      "▁4": 934,
      "emos": 935,
      "éndose": 936,
      "ros": 937,
      "▁hasta": 938,
      "▁du": 939,
      "at": 940,
      "▁inter": 941,
      "▁ja": 942,
      "ido": 943,
      "dar": 944,
      "ck": 945,
      "jar": 946,
      "can": 947,
      "▁val": 948,
      "▁bes": 949,
      "▁cer": 950,
      "▁feliz": 951,
      "rar": 952,
      "▁neces": 953,
      "olviéndose": 954,
      "▁real": 955,
      "▁revolviéndose": 956,
      "▁vez": 957,
      "▁5": 958,
      "▁jjaja": 959,
      "mbre": 960,
      "unca": 961,
      "tic": 962,
      "▁pla": 963,
      "▁algo": 964,
      "▁min": 965,
      "▁parti": 966,
      "pon": 967,
      "▁bandera": 968,
      "▁ga": 969,
      "o.": 970,
      "▁mucho": 971,
      "ya": 972,
      "▁nunca": 973,
      "▁ese": 974,
      "ee": 975,
      "tiva": 976,
      "▁soy": 977,
      "ig": 978,
      "▁mad": 979,
      "▁pel": 980,
      "▁puede": 981,
      "▁casa": 982,
      "▁os": 983,
      "fer": 984,
      "dr": 985,
      "ante": 986,
      "▁entre": 987,
      "▁much": 988,
      "▁desde": 989,
      "cial": 990,
      "gue": 991,
      "if": 992,
      "▁jo": 993,
      "lla": 994,
      "▁ins": 995,
      "erda": 996,
      "▁esc": 997,
      "▁pos": 998,
      "tras": 999,
      "▁apla": 1000,
      "▁toda": 1001,
      "gos": 1002,
      "par": 1003,
      "▁ob": 1004,
      "▁quien": 1005,
      "▁esa": 1006,
      "guien": 1007,
      "mbién": 1008,
      "▁tw": 1009,
      "ed": 1010,
      "miento": 1011,
      "▁sen": 1012,
      "gua": 1013,
      "▁también": 1014,
      "bl": 1015,
      "cio": 1016,
      "▁ci": 1017,
      "▁bar": 1018,
      "▁señ": 1019,
      "19": 1020,
      "▁conf": 1021,
      "▁exp": 1022,
      "bi": 1023,
      "ment": 1024,
      "ino": 1025,
      "▁vol": 1026,
      "▁eu": 1027,
      "▁aplaud": 1028,
      "as,": 1029,
      "▁mes": 1030,
      "▁dere": 1031,
      "ly": 1032,
      "▁reg": 1033,
      "ciendo": 1034,
      "▁aplaudiendo": 1035,
      "nos": 1036,
      "eron": 1037,
      "▁menos": 1038,
      "▁dar": 1039,
      "ola": 1040,
      "▁lin": 1041,
      "mento": 1042,
      "▁quer": 1043,
      "es,": 1044,
      "▁jun": 1045,
      "pi": 1046,
      "cep": 1047,
      "▁tiemp": 1048,
      "▁fle": 1049,
      "tir": 1050,
      "dice": 1051,
      "▁era": 1052,
      "▁ce": 1053,
      "▁we": 1054,
      "ut": 1055,
      "▁cons": 1056,
      "▁aca": 1057,
      "▁tener": 1058,
      "tando": 1059,
      "\".": 1060,
      "▁ín": 1061,
      "bier": 1062,
      "▁his": 1063,
      "▁ad": 1064,
      "▁segui": 1065,
      "▁op": 1066,
      "▁cr": 1067,
      "▁sí": 1068,
      "▁verdad": 1069,
      "▁sea": 1070,
      "cen": 1071,
      "ada": 1072,
      "▁días": 1073,
      "▁cosas": 1074,
      "ece": 1075,
      "bol": 1076,
      "▁estu": 1077,
      "gas": 1078,
      "▁mundo": 1079,
      "▁jus": 1080,
      "▁índice": 1081,
      "▁alguien": 1082,
      "▁có": 1083,
      "▁cada": 1084,
      "▁dic": 1085,
      "▁contra": 1086,
      "▁dios": 1087,
      "toria": 1088,
      "ão": 1089,
      "die": 1090,
      "▁mujer": 1091,
      "▁espa": 1092,
      "▁están": 1093,
      "▁dorso": 1094,
      "ismo": 1095,
      "es.": 1096,
      "lti": 1097,
      "▁pues": 1098,
      "ala": 1099,
      "▁mon": 1100,
      "tica": 1101,
      "mana": 1102,
      "▁corazones": 1103,
      "ientes": 1104,
      "▁at": 1105,
      "ie": 1106,
      "cas": 1107,
      "▁tr": 1108,
      "▁vis": 1109,
      "▁igu": 1110,
      "os,": 1111,
      "rado": 1112,
      "▁mañ": 1113,
      "ge": 1114,
      "▁vamos": 1115,
      "▁hor": 1116,
      "▁amor": 1117,
      "uela": 1118,
      "▁jue": 1119,
      "?.": 1120,
      "ío": 1121,
      "▁uno": 1122,
      "tado": 1123,
      "ano": 1124,
      "▁rec": 1125,
      "▁fi": 1126,
      "▁tar": 1127,
      "gi": 1128,
      "▁donde": 1129,
      "▁país": 1130,
      "tin": 1131,
      "zando": 1132,
      "deo": 1133,
      "▁escu": 1134,
      "▁han": 1135,
      "▁it": 1136,
      "▁igual": 1137,
      "▁gen": 1138,
      "dores": 1139,
      "tion": 1140,
      "▁nadie": 1141,
      "cional": 1142,
      "br": 1143,
      "istas": 1144,
      "▁blan": 1145,
      "▁mañana": 1146,
      "vir": 1147,
      "▁lla": 1148,
      "▁equi": 1149,
      "to,": 1150,
      "iza": 1151,
      "▁cha": 1152,
      "quí": 1153,
      "▁mismo": 1154,
      "▁impor": 1155,
      "▁tran": 1156,
      "▁cono": 1157,
      "▁gobier": 1158,
      "▁año": 1159,
      "▁am": 1160,
      "▁frente": 1161,
      "▁lan": 1162,
      "os.": 1163,
      "▁rep": 1164,
      "▁personas": 1165,
      "▁def": 1166,
      "dia": 1167,
      "▁mé": 1168,
      "▁ganas": 1169,
      "▁van": 1170,
      "▁6": 1171,
      "▁creo": 1172,
      "ves": 1173,
      "▁10": 1174,
      "lu": 1175,
      "???": 1176,
      "▁af": 1177,
      "▁z": 1178,
      "rec": 1179,
      "▁rojo": 1180,
      "aron": 1181,
      "▁segu": 1182,
      "▁bol": 1183,
      "▁bus": 1184,
      "▁dia": 1185,
      "▁may": 1186,
      "▁super": 1187,
      "▁traba": 1188,
      "▁tanto": 1189,
      "▁puedo": 1190,
      "ine": 1191,
      "más": 1192,
      "▁pasa": 1193,
      "s.": 1194,
      "!.": 1195,
      "▁aquí": 1196,
      "tura": 1197,
      "▁otro": 1198,
      "▁pal": 1199,
      "▁decir": 1200,
      "▁...": 1201,
      "do.": 1202,
      "gen": 1203,
      "▁mer": 1204,
      "▁vos": 1205,
      "cuer": 1206,
      "▁mus": 1207,
      "do,": 1208,
      "▁levan": 1209,
      "▁otra": 1210,
      "▁ol": 1211,
      "mil": 1212,
      "▁cuenta": 1213,
      "▁inf": 1214,
      "▁tienen": 1215,
      "▁cump": 1216,
      "ad": 1217,
      "via": 1218,
      "▁pens": 1219,
      "▁bueno": 1220,
      "cre": 1221,
      "tivo": 1222,
      "vid": 1223,
      "xico": 1224,
      "culo": 1225,
      "▁pan": 1226,
      "▁cómo": 1227,
      "var": 1228,
      "▁#": 1229,
      "▁venez": 1230,
      "▁tiempo": 1231,
      "▁bas": 1232,
      "fe": 1233,
      "▁pes": 1234,
      "to.": 1235,
      "▁cual": 1236,
      "▁haciendo": 1237,
      "▁boca": 1238,
      "▁gobierno": 1239,
      "cal": 1240,
      "▁final": 1241,
      "ima": 1242,
      "▁quier": 1243,
      "▁7": 1244,
      "dic": 1245,
      "pas": 1246,
      "▁mil": 1247,
      "tó": 1248,
      "ias": 1249,
      "pués": 1250,
      "▁camp": 1251,
      "t;": 1252,
      "▁8": 1253,
      "▁dice": 1254,
      "▁plan": 1255,
      "▁grande": 1256,
      "▁this": 1257,
      "▁beso": 1258,
      "▁vuel": 1259,
      "gn": 1260,
      "jajajaja": 1261,
      "gent": 1262,
      "▁nuevo": 1263,
      "▁después": 1264,
      "▁abajo": 1265,
      "ted": 1266,
      "má": 1267,
      "▁my": 1268,
      "ír": 1269,
      "▁algun": 1270,
      "▁cul": 1271,
      "tre": 1272,
      "ern": 1273,
      "▁tal": 1274,
      "▁ú": 1275,
      "iente": 1276,
      "▁prim": 1277,
      "▁mierda": 1278,
      "am": 1279,
      "bu": 1280,
      "tri": 1281,
      "ban": 1282,
      "vos": 1283,
      "ían": 1284,
      "▁az": 1285,
      "▁esper": 1286,
      "fa": 1287,
      "pues": 1288,
      "▁den": 1289,
      "js": 1290,
      "▁bal": 1291,
      "▁semana": 1292,
      "pen": 1293,
      "▁todas": 1294,
      "▁uni": 1295,
      "una": 1296,
      "cel": 1297,
      "forma": 1298,
      "arios": 1299,
      "▁eres": 1300,
      "▁gusta": 1301,
      "mir": 1302,
      "▁pensa": 1303,
      "▁chi": 1304,
      "▁dan": 1305,
      "as.": 1306,
      "▁gol": 1307,
      "tada": 1308,
      "▁arri": 1309,
      "dan": 1310,
      "▁antes": 1311,
      "▁abra": 1312,
      "▁poco": 1313,
      "ea": 1314,
      "cil": 1315,
      "▁nuestro": 1316,
      "tbol": 1317,
      "▁9": 1318,
      "▁ale": 1319,
      "ril": 1320,
      "blo": 1321,
      "▁poder": 1322,
      "▁últi": 1323,
      "▁sé": 1324,
      "tico": 1325,
      "▁sonrientes": 1326,
      "▁só": 1327,
      "ores": 1328,
      "▁gi": 1329,
      "▁derecha": 1330,
      "▁estamos": 1331,
      "▁sh": 1332,
      "▁temp": 1333,
      "▁reci": 1334,
      "▁estos": 1335,
      "iones": 1336,
      "▁extra": 1337,
      "▁ag": 1338,
      "▁blanco": 1339,
      "▁&": 1340,
      "▁mie": 1341,
      "vio": 1342,
      "icio": 1343,
      "▁ri": 1344,
      "▁foto": 1345,
      "haha": 1346,
      "esta": 1347,
      "entes": 1348,
      "olo": 1349,
      "▁wit": 1350,
      "▁pregun": 1351,
      "▁wh": 1352,
      "▁fun": 1353,
      "▁rt": 1354,
      "▁presid": 1355,
      "▁polí": 1356,
      "ér": 1357,
      "▁all": 1358,
      "mal": 1359,
      "ne": 1360,
      "▁dej": 1361,
      "▁ún": 1362,
      "▁that": 1363,
      "▁veces": 1364,
      "'s": 1365,
      "zar": 1366,
      "▁tú": 1367,
      "oración": 1368,
      "imo": 1369,
      "▁sue": 1370,
      "▁pun": 1371,
      "▁parte": 1372,
      "▁momento": 1373,
      "udad": 1374,
      "mes": 1375,
      "▁tus": 1376,
      "gh": 1377,
      "ds": 1378,
      "▁trabajo": 1379,
      "▁sos": 1380,
      "char": 1381,
      "ay": 1382,
      "▁parece": 1383,
      "icos": 1384,
      "tante": 1385,
      "▁har": 1386,
      "▁vía": 1387,
      "vis": 1388,
      "▁gui": 1389,
      "▁falta": 1390,
      ").": 1391,
      "▁tor": 1392,
      ":.": 1393,
      "▁cele": 1394,
      "▁ima": 1395,
      "vel": 1396,
      "▁twit": 1397,
      "▁argent": 1398,
      "▁arriba": 1399,
      "▁hermos": 1400,
      "▁comun": 1401,
      "ral": 1402,
      "ible": 1403,
      "▁somos": 1404,
      "▁cap": 1405,
      "▁noche": 1406,
      "▁ciudad": 1407,
      "▁0": 1408,
      "uda": 1409,
      "rá": 1410,
      "▁ahí": 1411,
      "▁bon": 1412,
      "cl": 1413,
      "a,": 1414,
      "▁with": 1415,
      "tv": 1416,
      "▁video": 1417,
      "bar": 1418,
      "▁apro": 1419,
      "▁..": 1420,
      "▁azul": 1421,
      "▁perf": 1422,
      "▁apoy": 1423,
      "▁music": 1424,
      "cri": 1425,
      "▁hora": 1426,
      "▁pin": 1427,
      "▁estas": 1428,
      "▁ojo": 1429,
      "▁ellos": 1430,
      "▁via": 1431,
      "ta,": 1432,
      "icar": 1433,
      "yo": 1434,
      "▁vas": 1435,
      "pp": 1436,
      "cción": 1437,
      "▁|": 1438,
      "▁salud": 1439,
      "a.": 1440,
      "▁venezuela": 1441,
      "▁sub": 1442,
      "▁queda": 1443,
      "▁presidente": 1444,
      "ta.": 1445,
      "vas": 1446,
      "▁colo": 1447,
      "ctor": 1448,
      "▁nueva": 1449,
      "▁vio": 1450,
      "llo": 1451,
      "▁quiere": 1452,
      "▁ella": 1453,
      "tad": 1454,
      "▁ben": 1455,
      "▁covid": 1456,
      "▁?": 1457,
      "ff": 1458,
      "▁madre": 1459,
      "▁lanzando": 1460,
      "▁aun": 1461,
      "▁direc": 1462,
      "mis": 1463,
      "▁sor": 1464,
      "mina": 1465,
      "iene": 1466,
      "▁mí": 1467,
      "▁dejar": 1468,
      "úbl": 1469,
      "▁ade": 1470,
      "▁201": 1471,
      "ridad": 1472,
      "titu": 1473,
      "▁cabe": 1474,
      "▁fuego": 1475,
      "ill": 1476,
      "▁debe": 1477,
      "▁cuar": 1478,
      "▁respon": 1479,
      "▁estaba": 1480,
      "rr": 1481,
      "▁nuestra": 1482,
      "▁fan": 1483,
      "lante": 1484,
      "▁oración": 1485,
      "▁dormir": 1486,
      "trar": 1487,
      "ian": 1488,
      "ks": 1489,
      "lor": 1490,
      "da,": 1491,
      "▁clas": 1492,
      "▁prof": 1493,
      "▁termin": 1494,
      "▁!": 1495,
      "tual": 1496,
      "▁señal": 1497,
      "▁nor": 1498,
      "útbol": 1499,
      "qué": 1500,
      "▁deja": 1501,
      "▁proble": 1502,
      "icación": 1503,
      "▁será": 1504,
      "▁amigos": 1505,
      "▁buena": 1506,
      "▁je": 1507,
      "▁seguir": 1508,
      "▁mill": 1509,
      "▁historia": 1510,
      "▁salir": 1511,
      "ka": 1512,
      "gún": 1513,
      "▁flecha": 1514,
      "▁19": 1515,
      "mia": 1516,
      "▁pelo": 1517,
      "ionado": 1518,
      "▁fútbol": 1519,
      "▁á": 1520,
      "mon": 1521,
      "▁escri": 1522,
      "pos": 1523,
      "▁estado": 1524,
      "▁primer": 1525,
      "▁gri": 1526,
      "▁corona": 1527,
      "low": 1528,
      "gres": 1529,
      "len": 1530,
      "▁trans": 1531,
      "▁españa": 1532,
      "cur": 1533,
      "▁unos": 1534,
      "ss": 1535,
      "ac": 1536,
      "tón": 1537,
      "▁tenemos": 1538,
      "gt;": 1539,
      "▁perd": 1540,
      "....": 1541,
      "▁muchas": 1542,
      "one": 1543,
      "da.": 1544,
      "▁miedo": 1545,
      "tif": 1546,
      "▁social": 1547,
      "▁ide": 1548,
      "▁marca": 1549,
      "ich": 1550,
      "▁bel": 1551,
      "jas": 1552,
      "▁camb": 1553,
      "▁comer": 1554,
      "rid": 1555,
      "▁lib": 1556,
      "cos": 1557,
      "▁homb": 1558,
      "val": 1559,
      "▁vic": 1560,
      "▁cri": 1561,
      "▁mtv": 1562,
      "gro": 1563,
      "milia": 1564,
      "▁cír": 1565,
      "▁cent": 1566,
      "anos": 1567,
      "▁are": 1568,
      "▁méxico": 1569,
      "▁él": 1570,
      "▁equipo": 1571,
      "▁cl": 1572,
      "quier": 1573,
      "▁compar": 1574,
      "▁amigo": 1575,
      "▁círculo": 1576,
      "use": 1577,
      "dir": 1578,
      "▁cuer": 1579,
      "cuerdo": 1580,
      "▁fuera": 1581,
      "▁segun": 1582,
      "▁flex": 1583,
      "op": 1584,
      "▁estre": 1585,
      "itar": 1586,
      "▁dijo": 1587,
      "eando": 1588,
      "▁twitter": 1589,
      "▁cier": 1590,
      "▁felici": 1591,
      "▁hablar": 1592,
      "▁hecho": 1593,
      "ger": 1594,
      "▁desa": 1595,
      "▁cabeza": 1596,
      "s,": 1597,
      "▁puta": 1598,
      "▁peor": 1599,
      "▁amar": 1600,
      "ñando": 1601,
      "▁sabe": 1602,
      "lea": 1603,
      "y.": 1604,
      "▁hacen": 1605,
      "000": 1606,
      "eros": 1607,
      "▁forma": 1608,
      "▁não": 1609,
      "▁bí": 1610,
      "▁cá": 1611,
      "▁pasar": 1612,
      "▁argentina": 1613,
      "▁dif": 1614,
      "▁juga": 1615,
      "otros": 1616,
      "▁siento": 1617,
      "▁mien": 1618,
      "eo": 1619,
      "▁din": 1620,
      "▁deber": 1621,
      "▁familia": 1622,
      "▁esos": 1623,
      "ceps": 1624,
      "▁frío": 1625,
      "▁bíceps": 1626,
      "▁ru": 1627,
      "▁buenos": 1628,
      "▁by": 1629,
      "ús": 1630,
      "▁vie": 1631,
      "▁asi": 1632,
      "▁len": 1633,
      "▁sólo": 1634,
      "▁che": 1635,
      "▁saber": 1636,
      "dido": 1637,
      "▁comi": 1638,
      "▁ning": 1639,
      "▁flexionado": 1640,
      "ale": 1641,
      "▁poner": 1642,
      "▁informa": 1643,
      "▁ví": 1644,
      "▁elec": 1645,
      "▁pul": 1646,
      "▁veo": 1647,
      "mm": 1648,
      "▁primera": 1649,
      "▁br": 1650,
      "▁sudor": 1651,
      "▁tri": 1652,
      "▁pra": 1653,
      "▁chis": 1654,
      "bil": 1655,
      "▁wha": 1656,
      "▁partido": 1657,
      "vil": 1658,
      "▁mira": 1659,
      "ii": 1660,
      "ticia": 1661,
      "▁nacional": 1662,
      "itos": 1663,
      "▁sigue": 1664,
      "▁xd": 1665,
      "▁necesito": 1666,
      "▁bab": 1667,
      "▁domin": 1668,
      "rir": 1669,
      "antes": 1670,
      "▁medi": 1671,
      "tis": 1672,
      "tadas": 1673,
      "▁públ": 1674,
      "▁conse": 1675,
      "t.": 1676,
      "▁pensativa": 1677,
      "alo": 1678,
      "▁tro": 1679,
      "añ": 1680,
      "▁lugar": 1681,
      "▁cris": 1682,
      "▁ros": 1683,
      "▁invi": 1684,
      "▁olvi": 1685,
      "dades": 1686,
      "▁encan": 1687,
      "▁cru": 1688,
      "izo": 1689,
      "▁your": 1690,
      "ior": 1691,
      "tido": 1692,
      "eral": 1693,
      "kk": 1694,
      "▁pueblo": 1695,
      "ción.": 1696,
      "tru": 1697,
      "▁ley": 1698,
      "▁pueden": 1699,
      "bles": 1700,
      "ty": 1701,
      "▁triste": 1702,
      "▁enten": 1703,
      "ton": 1704,
      "tedes": 1705,
      "▁ali": 1706,
      "▁hombre": 1707,
      "uego": 1708,
      "▁mientras": 1709,
      "para": 1710,
      "▁morado": 1711,
      "▁pien": 1712,
      "hi": 1713,
      "▁mayor": 1714,
      "▁podr": 1715,
      "▁tienes": 1716,
      "um": 1717,
      "▁oj": 1718,
      "▁madrid": 1719,
      "▁defen": 1720,
      "ida": 1721,
      "▁espero": 1722,
      "demos": 1723,
      "▁gana": 1724,
      "port": 1725,
      "▁cui": 1726,
      "bación": 1727,
      "▁recor": 1728,
      "hh": 1729,
      "dre": 1730,
      "ital": 1731,
      "▁espe": 1732,
      "uu": 1733,
      "▁nar": 1734,
      "▁15": 1735,
      "▁auto": 1736,
      "▁imag": 1737,
      "rup": 1738,
      "ecto": 1739,
      "llas": 1740,
      "▁[": 1741,
      "▁sho": 1742,
      "▁wor": 1743,
      "▁volver": 1744,
      "▁mos": 1745,
      "▁aten": 1746,
      "▁*": 1747,
      "icas": 1748,
      "\",": 1749,
      "▁gar": 1750,
      "▁llega": 1751,
      "▁aunque": 1752,
      "▁ustedes": 1753,
      "ys": 1754,
      "e.": 1755,
      "onces": 1756,
      "▁love": 1757,
      "▁liber": 1758,
      "fi": 1759,
      "▁pap": 1760,
      "ual": 1761,
      "olu": 1762,
      "▁disf": 1763,
      "▁amiga": 1764,
      "bas": 1765,
      "▁respe": 1766,
      "cando": 1767,
      "▁produ": 1768,
      "▁'": 1769,
      "amp": 1770,
      "bal": 1771,
      "guen": 1772,
      "▁apar": 1773,
      "▁/": 1774,
      "tados": 1775,
      "mu": 1776,
      "▁bril": 1777,
      "▁guiñando": 1778,
      "elo": 1779,
      "▁muchos": 1780,
      "sab": 1781,
      "▁ayer": 1782,
      "▁edu": 1783,
      "▁otros": 1784,
      "▁encon": 1785,
      "▁fotos": 1786,
      "▁apren": 1787,
      "ísi": 1788,
      "tua": 1789,
      "▁tarde": 1790,
      "▁new": 1791,
      "▁ani": 1792,
      "▁cambi": 1793,
      "▁horas": 1794,
      "▁fran": 1795,
      "entar": 1796,
      "▁muer": 1797,
      "▁rela": 1798,
      "▁cur": 1799,
      "▁what": 1800,
      "▁casi": 1801,
      "▁llama": 1802,
      "▁luego": 1803,
      "▁profes": 1804,
      "ción,": 1805,
      "▁like": 1806,
      "▁polic": 1807,
      "▁lindo": 1808,
      "tamente": 1809,
      "eta": 1810,
      "don": 1811,
      "pm": 1812,
      "▁ele": 1813,
      "▁hizo": 1814,
      "illo": 1815,
      "▁aún": 1816,
      "▁mor": 1817,
      "vers": 1818,
      "▁:(": 1819,
      "ting": 1820,
      "▁ren": 1821,
      "lica": 1822,
      "▁digo": 1823,
      "▁gas": 1824,
      "▁dicen": 1825,
      "sión": 1826,
      "▁habla": 1827,
      "▁haber": 1828,
      "▁tipo": 1829,
      "▁12": 1830,
      "▁loco": 1831,
      "ers": 1832,
      "▁gua": 1833,
      "bado": 1834,
      "▁viene": 1835,
      "lando": 1836,
      "▁vir": 1837,
      "▁espera": 1838,
      "▁deb": 1839,
      "virus": 1840,
      "▁cosa": 1841,
      "▁ante": 1842,
      "▁!!!": 1843,
      "cía": 1844,
      "esti": 1845,
      "▁gru": 1846,
      "erra": 1847,
      "▁amb": 1848,
      "bra": 1849,
      "▁fuer": 1850,
      "amp;": 1851,
      "▁tras": 1852,
      "mor": 1853,
      "ura": 1854,
      "▁not": 1855,
      "cuent": 1856,
      "▁bor": 1857,
      "▁+": 1858,
      "▁nosotros": 1859,
      "ular": 1860,
      "▁notas": 1861,
      "▁estudi": 1862,
      "cis": 1863,
      "▁llegar": 1864,
      "tina": 1865,
      "chos": 1866,
      "▁ama": 1867,
      "gando": 1868,
      "▁sido": 1869,
      "▁cualquier": 1870,
      "entena": 1871,
      "▁minu": 1872,
      "▁pró": 1873,
      "▁progra": 1874,
      "▁ur": 1875,
      "ial": 1876,
      "mien": 1877,
      "▁hola": 1878,
      "te.": 1879,
      "▁odio": 1880,
      "▁raz": 1881,
      "ear": 1882,
      "▁estás": 1883,
      "▁em": 1884,
      "▁publ": 1885,
      "y,": 1886,
      "comp": 1887,
      "cido": 1888,
      "e,": 1889,
      "▁había": 1890,
      "pro": 1891,
      "▁tomar": 1892,
      "mbia": 1893,
      "▁empres": 1894,
      "▁coronavirus": 1895,
      "pera": 1896,
      "▁mucha": 1897,
      "ándo": 1898,
      "brando": 1899,
      "mentos": 1900,
      "uso": 1901,
      "▁bro": 1902,
      "▁soci": 1903,
      "▁interes": 1904,
      "▁paso": 1905,
      "▁chispas": 1906,
      "▁difer": 1907,
      "fas": 1908,
      "▁lengua": 1909,
      "edad": 1910,
      "▁come": 1911,
      "dica": 1912,
      "▁dol": 1913,
      "ria": 1914,
      "d.": 1915,
      "▁palab": 1916,
      "dió": 1917,
      "▁but": 1918,
      "▁único": 1919,
      "ció": 1920,
      "éis": 1921,
      "▁dinero": 1922,
      "▁balón": 1923,
      "cul": 1924,
      "alá": 1925,
      "▁no,": 1926,
      "▁suf": 1927,
      "▁sex": 1928,
      "cor": 1929,
      "te,": 1930,
      "▁goo": 1931,
      "▁comple": 1932,
      "ícu": 1933,
      "▁quieren": 1934,
      "&gt;": 1935,
      "▁11": 1936,
      "▁sueño": 1937,
      "▁one": 1938,
      "cn": 1939,
      "king": 1940,
      "m.": 1941,
      "▁bts": 1942,
      "có": 1943,
      "▁cuarentena": 1944,
      "▁human": 1945,
      "▁viern": 1946,
      "▁was": 1947,
      "ollow": 1948,
      "▁total": 1949,
      "fo": 1950,
      "▁señor": 1951,
      "▁brillante": 1952,
      "ook": 1953,
      "ió": 1954,
      "vía": 1955,
      "cip": 1956,
      "▁cla": 1957,
      "▁herman": 1958,
      "▁esas": 1959,
      "▁visto": 1960,
      "▁ai": 1961,
      "dos.": 1962,
      "▁pulgar": 1963,
      "til": 1964,
      "▁disfru": 1965,
      "▁up": 1966,
      "té": 1967,
      "▁just": 1968,
      "col": 1969,
      "▁hue": 1970,
      "▁tele": 1971,
      "▁celebrando": 1972,
      "▁chile": 1973,
      "▁blo": 1974,
      "rante": 1975,
      "▁agu": 1976,
      "▁tenía": 1977,
      "▁unas": 1978,
      "vin": 1979,
      "▁seguro": 1980,
      "▁pasado": 1981,
      "▁cho": 1982,
      "▁agua": 1983,
      "▁pod": 1984,
      "ches": 1985,
      "▁serv": 1986,
      "▁quién": 1987,
      "mara": 1988,
      "imada": 1989,
      "▁have": 1990,
      "▁corrup": 1991,
      "▁jugar": 1992,
      "eti": 1993,
      "▁domingo": 1994,
      "itas": 1995,
      "▁cel": 1996,
      "▁fir": 1997,
      "▁entonces": 1998,
      "gía": 1999,
      "▁pare": 2000,
      "izar": 2001,
      "▁necesita": 2002,
      "▁nuestros": 2003,
      "▁empez": 2004,
      "est": 2005,
      "▁calle": 2006,
      "▁camin": 2007,
      "menta": 2008,
      "▁um": 2009,
      "▁educa": 2010,
      "▁2020": 2011,
      "▁jajajaja": 2012,
      "▁desan": 2013,
      "▁lar": 2014,
      "▁pensar": 2015,
      "▁prin": 2016,
      "▁lit": 2017,
      "▁encuent": 2018,
      "▁ojalá": 2019,
      "▁hos": 2020,
      "▁tema": 2021,
      "▁agra": 2022,
      "▁quedar": 2023,
      "▁salu": 2024,
      "ps": 2025,
      "▁oscu": 2026,
      "dida": 2027,
      "▁inten": 2028,
      "cios": 2029,
      "▁euro": 2030,
      "▁alto": 2031,
      "▁chin": 2032,
      "▁resul": 2033,
      "▁$": 2034,
      "▁millones": 2035,
      "▁18": 2036,
      "and": 2037,
      "▁tru": 2038,
      "▁acuerdo": 2039,
      "▁wa": 2040,
      "▁ref": 2041,
      "▁iz": 2042,
      "iado": 2043,
      "gida": 2044,
      "ant": 2045,
      "▁musicales": 2046,
      "wn": 2047,
      "▁próx": 2048,
      "rados": 2049,
      "▁abo": 2050,
      "▁inte": 2051,
      "▁reco": 2052,
      "ini": 2053,
      "▁mujeres": 2054,
      "▁romp": 2055,
      "▁recu": 2056,
      "lo.": 2057,
      "▁colombia": 2058,
      "▁prop": 2059,
      "▁guar": 2060,
      "▁tur": 2061,
      "▁acá": 2062,
      "▁hici": 2063,
      "ms": 2064,
      "jes": 2065,
      "▁paz": 2066,
      "ye": 2067,
      "▁levantadas": 2068,
      "vidad": 2069,
      "▁jul": 2070,
      "▁&amp;": 2071,
      "▁et": 2072,
      "▁sabes": 2073,
      "▁pl": 2074,
      "▁ji": 2075,
      "▁desanimada": 2076,
      "▁iba": 2077,
      "▁verde": 2078,
      "10": 2079,
      "yas": 2080,
      "▁vaya": 2081,
      "migo": 2082,
      "aria": 2083,
      "▁puedes": 2084,
      "▁caso": 2085,
      "icial": 2086,
      "▁posi": 2087,
      "▁cuan": 2088,
      "▁fro": 2089,
      "▁jor": 2090,
      "▁sale": 2091,
      "▁entr": 2092,
      "▁negro": 2093,
      "gó": 2094,
      "▁gal": 2095,
      "'t": 2096,
      "idades": 2097,
      "▁wo": 2098,
      "▁mejores": 2099,
      "▁buenas": 2100,
      "▁sino": 2101,
      "▁victoria": 2102,
      "▁viernes": 2103,
      "embre": 2104,
      "dez": 2105,
      "▁ayud": 2106,
      "lado": 2107,
      "▁tres": 2108,
      "eet": 2109,
      "▁av": 2110,
      "▁ases": 2111,
      "30": 2112,
      "lub": 2113,
      "▁lun": 2114,
      "dial": 2115,
      "▁ps": 2116,
      "tencia": 2117,
      "▁100": 2118,
      "▁top": 2119,
      "gado": 2120,
      "▁actual": 2121,
      "tel": 2122,
      "gre": 2123,
      "▁enci": 2124,
      "pre": 2125,
      "▁enco": 2126,
      "▁mamá": 2127,
      "▁due": 2128,
      "lo,": 2129,
      "chas": 2130,
      "▁misma": 2131,
      "▁dio": 2132,
      "▁problema": 2133,
      "▁compañ": 2134,
      "▁more": 2135,
      "▁tre": 2136,
      "▁hago": 2137,
      "ell": 2138,
      "jaj": 2139,
      "dal": 2140,
      "▁entra": 2141,
      "▁opin": 2142,
      "▁sá": 2143,
      "▁lado": 2144,
      "▁ej": 2145,
      "▁sig": 2146,
      "zas": 2147,
      "▁mara": 2148,
      "▁simp": 2149,
      "▁mono": 2150,
      "cado": 2151,
      "▁vivir": 2152,
      "▁nota": 2153,
      "igh": 2154,
      "▁perio": 2155,
      "dos,": 2156,
      "▁ever": 2157,
      "illa": 2158,
      "▁out": 2159,
      "▁importante": 2160,
      "▁manera": 2161,
      "he": 2162,
      "▁lleva": 2163,
      "▁llorar": 2164,
      "▁art": 2165,
      "▁comida": 2166,
      "▁prem": 2167,
      "erto": 2168,
      "bir": 2169,
      "▁than": 2170,
      "gal": 2171,
      "ki": 2172,
      "▁nivel": 2173,
      "ñas": 2174,
      "▁peque": 2175,
      "▁programa": 2176,
      "▁usted": 2177,
      "▁club": 2178,
      "▁ganar": 2179,
      "▁lab": 2180,
      "usa": 2181,
      "diendo": 2182,
      "▁chu": 2183,
      "tima": 2184,
      "▁escuchar": 2185,
      "▁ton": 2186,
      "▁algún": 2187,
      "▁grandes": 2188,
      "▁hombros": 2189,
      "▁il": 2190,
      "ry": 2191,
      "▁grupo": 2192,
      "▁extraño": 2193,
      "tos,": 2194,
      "▁capa": 2195,
      "▁hijo": 2196,
      "▁30": 2197,
      "ocu": 2198,
      "gia": 2199,
      "▁proy": 2200,
      "rea": 2201,
      "zos": 2202,
      "▁fami": 2203,
      "inos": 2204,
      "▁pobre": 2205,
      "▁policía": 2206,
      "▁from": 2207,
      "▁pier": 2208,
      "gü": 2209,
      "st": 2210,
      "dy": 2211,
      "cra": 2212,
      "▁sería": 2213,
      "▁flor": 2214,
      "▁some": 2215,
      "cono": 2216,
      "ist": 2217,
      "mpo": 2218,
      "▁má": 2219,
      "▁!!": 2220,
      "▁incre": 2221,
      "▁trabaja": 2222,
      "▁sur": 2223,
      "demia": 2224,
      "▁tui": 2225,
      "tivos": 2226,
      "▁podemos": 2227,
      "▁bra": 2228,
      "▁consi": 2229,
      "iden": 2230,
      "▁comprar": 2231,
      "gio": 2232,
      "▁encogida": 2233,
      "eno": 2234,
      "▁entiendo": 2235,
      "ticos": 2236,
      "▁enfer": 2237,
      "▁és": 2238,
      "▁dur": 2239,
      "▁tapa": 2240,
      "▁cien": 2241,
      "▁mensa": 2242,
      "▁interna": 2243,
      "tos.": 2244,
      "▁sacar": 2245,
      "▁pq": 2246,
      "▁will": 2247,
      "▁ayuda": 2248,
      "▁vale": 2249,
      "▁mundial": 2250,
      "▁cambio": 2251,
      "▁oscuro": 2252,
      "▁exper": 2253,
      "ite": 2254,
      "▁nu": 2255,
      "▁información": 2256,
      "▁prote": 2257,
      "▁pende": 2258,
      "▁cumplea": 2259,
      "▁viendo": 2260,
      "▁aque": 2261,
      "tia": 2262,
      "ñar": 2263,
      "▁mús": 2264,
      "▁conta": 2265,
      "▁juego": 2266,
      "▁siendo": 2267,
      "day": 2268,
      "▁enf": 2269,
      "▁gato": 2270,
      "▁demas": 2271,
      "ko": 2272,
      "ex": 2273,
      "▁fil": 2274,
      "▁funcion": 2275,
      "▁they": 2276,
      "ase": 2277,
      "pres": 2278,
      "gel": 2279,
      "▁int": 2280,
      "dado": 2281,
      "▁vivo": 2282,
      "▁depor": 2283,
      "▁nombre": 2284,
      "▁suerte": 2285,
      "▁menti": 2286,
      ":00": 2287,
      "▁gor": 2288,
      "▁2019": 2289,
      "▁demo": 2290,
      "▁var": 2291,
      "▁pron": 2292,
      "▁especial": 2293,
      "ional": 2294,
      "▁españ": 2295,
      "▁sentir": 2296,
      "▁organ": 2297,
      "▁ig": 2298,
      "▁play": 2299,
      "▁tendr": 2300,
      "▁meses": 2301,
      "▁encima": 2302,
      "▁durante": 2303,
      "▁saben": 2304,
      "▁haga": 2305,
      "▁preocu": 2306,
      "▁futu": 2307,
      "▁niños": 2308,
      "▁realidad": 2309,
      "▁pone": 2310,
      "▁fiesta": 2311,
      "▁mtvla": 2312,
      "▁minis": 2313,
      "▁cumpleaños": 2314,
      "tigo": 2315,
      "▁sta": 2316,
      "▁juan": 2317,
      "uld": 2318,
      "▁conmigo": 2319,
      "▁leer": 2320,
      "ung": 2321,
      "▁sigo": 2322,
      "cidad": 2323,
      "▁kkk": 2324,
      "▁normal": 2325,
      "▁gafas": 2326,
      "▁política": 2327,
      "▁justicia": 2328,
      "▁period": 2329,
      "▁im": 2330,
      "▁todavía": 2331,
      "▁hijos": 2332,
      "▁14": 2333,
      "▁repres": 2334,
      "▁babeando": 2335,
      "▁edi": 2336,
      "ctu": 2337,
      "▁if": 2338,
      "ong": 2339,
      "▁fra": 2340,
      "ix": 2341,
      "▁primero": 2342,
      "▁tempora": 2343,
      "▁mic": 2344,
      "▁za": 2345,
      "▁cues": 2346,
      "vent": 2347,
      "▁anda": 2348,
      "▁precio": 2349,
      "▁dé": 2350,
      "▁perfil": 2351,
      "diante": 2352,
      "▁¿qué": 2353,
      "▁ano": 2354,
      "▁sola": 2355,
      "▁confeti": 2356,
      "bla": 2357,
      "mpoco": 2358,
      "▁now": 2359,
      "aña": 2360,
      "inas": 2361,
      "▁media": 2362,
      "▁emb": 2363,
      "ciente": 2364,
      "▁aprobación": 2365,
      "▁arre": 2366,
      "ecer": 2367,
      "▁24": 2368,
      "▁contin": 2369,
      "ría": 2370,
      "▁ata": 2371,
      "uncia": 2372,
      "güen": 2373,
      "▁campe": 2374,
      "▁expres": 2375,
      "▁copa": 2376,
      "▁inde": 2377,
      "▁trabajar": 2378,
      "ál": 2379,
      "▁i'": 2380,
      "▁tampoco": 2381,
      "fono": 2382,
      "▁situa": 2383,
      "▁lpm": 2384,
      "▁radiante": 2385,
      "taron": 2386,
      "▁si,": 2387,
      "▁ka": 2388,
      "▁bla": 2389,
      "▁tranqui": 2390,
      "18": 2391,
      "ese": 2392,
      "ris": 2393,
      "▁importa": 2394,
      "▁partici": 2395,
      "▁acaba": 2396,
      "▁viol": 2397,
      "amo": 2398,
      "▁serio": 2399,
      "▁radio": 2400,
      "▁lis": 2401,
      "▁desper": 2402,
      "dora": 2403,
      "▁cua": 2404,
      "▁ago": 2405,
      "▁orgu": 2406,
      "▁beb": 2407,
      "▁bb": 2408,
      "▁roto": 2409,
      "▁sele": 2410,
      "ador": 2411,
      "▁además": 2412,
      "▁razón": 2413,
      "▁fer": 2414,
      "ph": 2415,
      "▁jajajajajaja": 2416,
      "esto": 2417,
      "▁contro": 2418,
      "ça": 2419,
      "▁estrellas": 2420,
      "quierda": 2421,
      "▁mala": 2422,
      "▁personal": 2423,
      "ard": 2424,
      "▁tir": 2425,
      "ick": 2426,
      "▁chan": 2427,
      "ght": 2428,
      "▁plata": 2429,
      "▁demás": 2430,
      "▁meu": 2431,
      "▁fá": 2432,
      "mando": 2433,
      "rio": 2434,
      "rada": 2435,
      "ican": 2436,
      "cimiento": 2437,
      "sos": 2438,
      "tiendo": 2439,
      "▁inves": 2440,
      "▁day": 2441,
      "ar,": 2442,
      "▁música": 2443,
      "▁follow": 2444,
      "tagra": 2445,
      "ther": 2446,
      "▁dec": 2447,
      "▁anti": 2448,
      "tación": 2449,
      "▁ef": 2450,
      "mba": 2451,
      "▁13": 2452,
      "▁pelícu": 2453,
      "▁creer": 2454,
      "ificación": 2455,
      "▁izquierda": 2456,
      "▁gritando": 2457,
      "▁confir": 2458,
      "▁serie": 2459,
      "▁quis": 2460,
      "▁coment": 2461,
      "▁desp": 2462,
      "▁última": 2463,
      "▁famili": 2464,
      "▁abrazando": 2465,
      "ar.": 2466,
      "▁glo": 2467,
      "tt": 2468,
      "ró": 2469,
      "▁toma": 2470,
      "▁lunes": 2471,
      "▁ok": 2472,
      "▁pagar": 2473,
      "▁amarillo": 2474,
      "▁pis": 2475,
      "erta": 2476,
      "icia": 2477,
      "▁haya": 2478,
      "▁encanta": 2479,
      "▁quere": 2480,
      "m,": 2481,
      "▁ves": 2482,
      "ifica": 2483,
      "ticas": 2484,
      "lt;": 2485,
      "chi": 2486,
      "vés": 2487,
      "▁perro": 2488,
      "▁abier": 2489,
      "▁cerrados": 2490,
      "▁jos": 2491,
      "▁perder": 2492,
      "▁linda": 2493,
      "▁incl": 2494,
      "ento": 2495,
      "▁punto": 2496,
      "ser": 2497,
      "▁cole": 2498,
      "tá": 2499,
      "▁alguna": 2500,
      "▁ejemp": 2501,
      "▁bi": 2502,
      "ler": 2503,
      "▁luz": 2504,
      "▁fui": 2505,
      "ónde": 2506,
      "▁17": 2507,
      "quiera": 2508,
      "▁16": 2509,
      "▁evi": 2510,
      "portun": 2511,
      "jada": 2512,
      "gada": 2513,
      "▁hubi": 2514,
      "bel": 2515,
      "▁permi": 2516,
      "▁debería": 2517,
      "▁face": 2518,
      "▁acabo": 2519,
      "mó": 2520,
      "ct": 2521,
      "▁cámara": 2522,
      "ity": 2523,
      "dando": 2524,
      "ición": 2525,
      "ror": 2526,
      "▁mais": 2527,
      "ecta": 2528,
      "▁libre": 2529,
      "▁aw": 2530,
      "▁expl": 2531,
      "▁uma": 2532,
      "dito": 2533,
      "▁vs": 2534,
      "ua": 2535,
      "▁excel": 2536,
      "▁pandemia": 2537,
      "▁símb": 2538,
      "▁canción": 2539,
      "▁cañ": 2540,
      "▁abs": 2541,
      "▁dra": 2542,
      "▁pena": 2543,
      "pol": 2544,
      "▁investi": 2545,
      "▁prue": 2546,
      "▁movi": 2547,
      "▁liga": 2548,
      "▁otras": 2549,
      "tamos": 2550,
      "▁apoyo": 2551,
      "▁fre": 2552,
      "▁peop": 2553,
      "▁noti": 2554,
      "▁:)": 2555,
      "▁\"el": 2556,
      "▁dig": 2557,
      "▁llevar": 2558,
      "▁infor": 2559,
      "▁get": 2560,
      "▁presenta": 2561,
      "▁tenga": 2562,
      "▁junto": 2563,
      "usión": 2564,
      "pan": 2565,
      "now": 2566,
      "▁pren": 2567,
      "▁exis": 2568,
      "▁través": 2569,
      "▁último": 2570,
      "▁difí": 2571,
      "▁far": 2572,
      "dó": 2573,
      "güenza": 2574,
      "▁gre": 2575,
      "ioridad": 2576,
      "▁responsab": 2577,
      "▁dicho": 2578,
      "ies": 2579,
      "cito": 2580,
      "▁compro": 2581,
      "▁contigo": 2582,
      "pero": 2583,
      "▁people": 2584,
      "▁orden": 2585,
      "ia,": 2586,
      "▁general": 2587,
      "und": 2588,
      "▁seguridad": 2589,
      "▁acomp": 2590,
      "▁bras": 2591,
      "pido": 2592,
      "▁algunos": 2593,
      "▁tamb": 2594,
      "▁ke": 2595,
      "jsjs": 2596,
      "cla": 2597,
      "▁tí": 2598,
      "▁fis": 2599,
      "▁pelotu": 2600,
      "▁sir": 2601,
      "eras": 2602,
      "taría": 2603,
      "▁abrazo": 2604,
      "▁derecho": 2605,
      "▁idea": 2606,
      "▁centro": 2607,
      "ancia": 2608,
      "ísimo": 2609,
      "▁quieres": 2610,
      "▁quienes": 2611,
      "▁dije": 2612,
      "▁oportun": 2613,
      "▁indi": 2614,
      "▁tweet": 2615,
      "▁log": 2616,
      "▁fueron": 2617,
      "▁conver": 2618,
      "▁culpa": 2619,
      "t,": 2620,
      "▁cine": 2621,
      "▁rico": 2622,
      "ok": 2623,
      "yy": 2624,
      "óg": 2625,
      "▁univer": 2626,
      "▁corr": 2627,
      "▁1.": 2628,
      "▁nego": 2629,
      "▁siste": 2630,
      "-19": 2631,
      "▁resp": 2632,
      "ld": 2633,
      "▁time": 2634,
      "▁acti": 2635,
      "dios": 2636,
      "▁princip": 2637,
      "▁ign": 2638,
      "▁show": 2639,
      "▁autor": 2640,
      "ins": 2641,
      "icios": 2642,
      "trás": 2643,
      "▁enamo": 2644,
      "▁minutos": 2645,
      "▁hosp": 2646,
      "▁bai": 2647,
      "▁vídeo": 2648,
      "ciar": 2649,
      "▁pasó": 2650,
      "▁200": 2651,
      "▁botón": 2652,
      "▁hermosa": 2653,
      "▁cabre": 2654,
      "tf": 2655,
      "▁cañón": 2656,
      "bilidad": 2657,
      "▁regres": 2658,
      "▁queremos": 2659,
      "eza": 2660,
      "la,": 2661,
      "▁trump": 2662,
      "puesta": 2663,
      "▁got": 2664,
      "▁eh": 2665,
      "▁senti": 2666,
      "▁alta": 2667,
      "▁libertad": 2668,
      "llos": 2669,
      "▁hermoso": 2670,
      "▁when": 2671,
      "▁how": 2672,
      "▁payas": 2673,
      "▁clase": 2674,
      "fu": 2675,
      "del": 2676,
      "▁palabras": 2677,
      "▁char": 2678,
      "▁sábado": 2679,
      "▁conocer": 2680,
      "tw": 2681,
      "▁dentro": 2682,
      "▁hon": 2683,
      "▁agrade": 2684,
      "mientos": 2685,
      "▁hablando": 2686,
      "isión": 2687,
      "2020": 2688,
      "▁futuro": 2689,
      "▁madu": 2690,
      "▁hemos": 2691,
      "au": 2692,
      "gente": 2693,
      "▁cuernos": 2694,
      "▁acos": 2695,
      "dí": 2696,
      "rible": 2697,
      "▁about": 2698,
      "pez": 2699,
      "▁escuch": 2700,
      "▁\"la": 2701,
      "▁patri": 2702,
      "▁happ": 2703,
      "▁envi": 2704,
      "▁bir": 2705,
      "▁gro": 2706,
      "▁mex": 2707,
      "▁star": 2708,
      "▁tel": 2709,
      "mica": 2710,
      "▁conci": 2711,
      "▁fuerza": 2712,
      "rera": 2713,
      "miendo": 2714,
      "mero": 2715,
      "▁recono": 2716,
      "▁única": 2717,
      "▁25": 2718,
      ".000": 2719,
      "▁pase": 2720,
      "tural": 2721,
      "▁servicio": 2722,
      "uestra": 2723,
      "la.": 2724,
      "arro": 2725,
      "▁entender": 2726,
      "her": 2727,
      "tera": 2728,
      "▁cir": 2729,
      "▁libro": 2730,
      "▁nú": 2731,
      "▁existe": 2732,
      "▁español": 2733,
      "my": 2734,
      "ia.": 2735,
      "▁esperando": 2736,
      "▁entien": 2737,
      "jan": 2738,
      "▁cuerpo": 2739,
      "sidad": 2740,
      "▁juntos": 2741,
      "dro": 2742,
      "▁sean": 2743,
      "▁cansa": 2744,
      "▁regal": 2745,
      "▁lí": 2746,
      "▁án": 2747,
      "ooo": 2748,
      "▁21": 2749,
      "▁fon": 2750,
      "▁rey": 2751,
      "icip": 2752,
      "▁posible": 2753,
      "ni": 2754,
      "▁estan": 2755,
      "▁bonito": 2756,
      "▁acor": 2757,
      "▁vergüenza": 2758,
      "▁fácil": 2759,
      "jando": 2760,
      "▁gober": 2761,
      "ju": 2762,
      "▁cabreada": 2763,
      "▁bueno,": 2764,
      "▁every": 2765,
      "vista": 2766,
      "érica": 2767,
      "▁alma": 2768,
      "▁voz": 2769,
      "▁no.": 2770,
      "tancia": 2771,
      "cto": 2772,
      "▁puño": 2773,
      "▁dejo": 2774,
      "▁municip": 2775,
      "▁calor": 2776,
      "▁fern": 2777,
      "▁temporada": 2778,
      "▁ado": 2779,
      "▁tv": 2780,
      "ía,": 2781,
      "▁stre": 2782,
      "▁see": 2783,
      "▁der": 2784,
      "▁sabor": 2785,
      "▁querer": 2786,
      "▁novio": 2787,
      "ess": 2788,
      "▁vec": 2789,
      "ales.": 2790,
      "mbo": 2791,
      "osa": 2792,
      "▁our": 2793,
      "tran": 2794,
      "▁haces": 2795,
      "▁know": 2796,
      "▁etc": 2797,
      "▁instagra": 2798,
      "yan": 2799,
      "enas": 2800,
      "▁perdón": 2801,
      "▁venezol": 2802,
      "dencia": 2803,
      "▁difícil": 2804,
      "▁podría": 2805,
      "este": 2806,
      "▁\"no": 2807,
      "▁realmente": 2808,
      "tero": 2809,
      "gencia": 2810,
      "su": 2811,
      "▁cin": 2812,
      "▁mue": 2813,
      "aaa": 2814,
      "ización": 2815,
      "▁simple": 2816,
      "▁luna": 2817,
      "▁morir": 2818,
      "▁cambiar": 2819,
      "ales,": 2820,
      "ight": 2821,
      "▁diga": 2822,
      "▁sacando": 2823,
      "▁estrella": 2824,
      "tener": 2825,
      "▁dónde": 2826,
      "▁premios": 2827,
      "iencia": 2828,
      "▁pesso": 2829,
      "▁ense": 2830,
      "▁atención": 2831,
      "book": 2832,
      "▁50": 2833,
      "imos": 2834,
      "das.": 2835,
      "▁who": 2836,
      "▁aqui": 2837,
      "),": 2838,
      "▁dolor": 2839,
      "▁sign": 2840,
      "▁cruz": 2841,
      "▁padre": 2842,
      "▁fla": 2843,
      "▁no?": 2844,
      "▁acep": 2845,
      "▁comen": 2846,
      "▁hice": 2847,
      "▁dias": 2848,
      "▁noticias": 2849,
      "voca": 2850,
      "▁asco": 2851,
      "▁er": 2852,
      "▁muerte": 2853,
      "▁según": 2854,
      "▁verificación": 2855,
      "▁increí": 2856,
      "dis": 2857,
      "net": 2858,
      "▁rá": 2859,
      "▁das": 2860,
      "▁good": 2861,
      "▁usar": 2862,
      "▁bail": 2863,
      "▁sú": 2864,
      "▁econo": 2865,
      "▁fas": 2866,
      "▁casos": 2867,
      "▁salva": 2868,
      "▁santa": 2869,
      "▁bloque": 2870,
      "▁busca": 2871,
      "tur": 2872,
      "▁cuent": 2873,
      "das,": 2874,
      "▁ou": 2875,
      "▁ignor": 2876,
      "▁aj": 2877,
      "rez": 2878,
      "▁toca": 2879,
      "ef": 2880,
      "▁buscar": 2881,
      "▁lista": 2882,
      "mena": 2883,
      "▁covid19": 2884,
      "▁descu": 2885,
      "▁xq": 2886,
      "torio": 2887,
      "▁nada,": 2888,
      "arse": 2889,
      "▁exa": 2890,
      "▁priva": 2891,
      "▁covid-19": 2892,
      "2019": 2893,
      "▁voto": 2894,
      "▁\"a": 2895,
      "▁sep": 2896,
      "dico": 2897,
      "▁valor": 2898,
      "▁hahaha": 2899,
      "▁ningún": 2900,
      "▁té": 2901,
      "▁congres": 2902,
      "21": 2903,
      "▁redes": 2904,
      "▁llamar": 2905,
      "ía.": 2906,
      "▁luis": 2907,
      "▁sistema": 2908,
      "▁proces": 2909,
      "▁bajo": 2910,
      "▁cumple": 2911,
      "▁pregunta": 2912,
      "▁ple": 2913,
      "▁dale": 2914,
      "san": 2915,
      "tter": 2916,
      "▁encontrar": 2917,
      "▁carlos": 2918,
      "bro": 2919,
      "terio": 2920,
      "▁diciendo": 2921,
      "▁contes": 2922,
      "▁crisis": 2923,
      "▁desarro": 2924,
      "▁público": 2925,
      "d,": 2926,
      "ecen": 2927,
      "ág": 2928,
      "▁pedo": 2929,
      "▁nada.": 2930,
      "▁i'm": 2931,
      "▁gira": 2932,
      "▁saludos": 2933,
      "▁happy": 2934,
      "▁mater": 2935,
      "aro": 2936,
      "quito": 2937,
      "▁sí,": 2938,
      "▁verga": 2939,
      "▁solu": 2940,
      "vera": 2941,
      "rando": 2942,
      "uir": 2943,
      "▁dando": 2944,
      "▁excelente": 2945,
      "▁llu": 2946,
      "▁agar": 2947,
      "▁vide": 2948,
      "▁bien,": 2949,
      "▁papá": 2950,
      "▁maduro": 2951,
      "cin": 2952,
      "ra.": 2953,
      "▁cuba": 2954,
      "▁hel": 2955,
      "ish": 2956,
      "▁cama": 2957,
      "▁demasiado": 2958,
      "ink": 2959,
      "encias": 2960,
      "▁moles": 2961,
      "▁quería": 2962,
      "▁eli": 2963,
      "eramente": 2964,
      "▁err": 2965,
      "ra,": 2966,
      "fico": 2967,
      "▁segunda": 2968,
      "ques": 2969,
      "dita": 2970,
      "▁doy": 2971,
      "▁nuestras": 2972,
      "ices": 2973,
      "▁ayudar": 2974,
      "thing": 2975,
      "▁hombres": 2976,
      "▁live": 2977,
      "▁problemas": 2978,
      "&gt;&gt;": 2979,
      "▁oficial": 2980,
      "▁jueves": 2981,
      "▁deba": 2982,
      "▁tanta": 2983,
      "▁secre": 2984,
      "▁vida.": 2985,
      "▁canal": 2986,
      "▁cerve": 2987,
      "▁trata": 2988,
      "▁segundo": 2989,
      "▁avan": 2990,
      "▁obli": 2991,
      "▁siguen": 2992,
      "▁deses": 2993,
      "▁internacional": 2994,
      "▁here": 2995,
      "▁vuelta": 2996,
      "▁22": 2997,
      "▁violencia": 2998,
      "▁mama": 2999,
      "ção": 3000,
      "▁brasil": 3001,
      "▁pensando": 3002,
      "oso": 3003,
      "sion": 3004,
      "▁mensaje": 3005,
      "▁alcal": 3006,
      "▁amer": 3007,
      "gran": 3008,
      "din": 3009,
      "▁year": 3010,
      "i,": 3011,
      "▁limp": 3012,
      "ados": 3013,
      "ieron": 3014,
      "▁explo": 3015,
      "▁gon": 3016,
      "dé": 3017,
      "▁ep": 3018,
      "▁aman": 3019,
      "▁dispon": 3020,
      "12": 3021,
      "ep": 3022,
      "rió": 3023,
      "ens": 3024,
      "▁sw": 3025,
      "▁its": 3026,
      "lación": 3027,
      "▁payaso": 3028,
      "▁pana": 3029,
      "▁pedir": 3030,
      "rate": 3031,
      "▁martes": 3032,
      "▁lucha": 3033,
      "mun": 3034,
      "▁jugador": 3035,
      "ác": 3036,
      "▁vaca": 3037,
      "are": 3038,
      "▁impos": 3039,
      "tas,": 3040,
      "▁niño": 3041,
      "▁eno": 3042,
      "▁ecu": 3043,
      "▁off": 3044,
      "▁&lt;": 3045,
      "▁increíble": 3046,
      "▁crea": 3047,
      "▁econ": 3048,
      "▁jamás": 3049,
      "▁superioridad": 3050,
      "gl": 3051,
      "▁promo": 3052,
      "go,": 3053,
      "▁corre": 3054,
      "▁vuelve": 3055,
      "▁sent": 3056,
      "▁facebook": 3057,
      "▁brin": 3058,
      "▁literal": 3059,
      "hu": 3060,
      "▁abur": 3061,
      "r.": 3062,
      "▁cli": 3063,
      "▁tit": 3064,
      "ner": 3065,
      "▁unidos": 3066,
      "nada": 3067,
      "▁nie": 3068,
      "tantes": 3069,
      "istra": 3070,
      "▁indepen": 3071,
      "▁sentido": 3072,
      "▁situación": 3073,
      "▁elecciones": 3074,
      "tas.": 3075,
      "▁manda": 3076,
      "▁ki": 3077,
      "cómo": 3078,
      "dd": 3079,
      "▁revés": 3080,
      "▁mandar": 3081,
      "▁reun": 3082,
      "▁recuer": 3083,
      "▁termina": 3084,
      "▁wee": 3085,
      "ked": 3086,
      "▁2.": 3087,
      "▁aguan": 3088,
      "▁even": 3089,
      "fica": 3090,
      "tral": 3091,
      "▁contag": 3092,
      "▁hermano": 3093,
      "ído": 3094,
      "▁hicieron": 3095,
      "▁histor": 3096,
      "▁instagram": 3097,
      "▁econó": 3098,
      "nn": 3099,
      "▁súper": 3100,
      "▁puntos": 3101,
      "torios": 3102,
      "▁respeto": 3103,
      "▁matar": 3104,
      "ículo": 3105,
      "▁mó": 3106,
      "taciones": 3107,
      "▁bur": 3108,
      "sas": 3109,
      "brar": 3110,
      "▁suel": 3111,
      "▁institu": 3112,
      "▁sector": 3113,
      "▁cuad": 3114,
      "▁vac": 3115,
      "pren": 3116,
      "▁constitu": 3117,
      "▁duele": 3118,
      "io,": 3119,
      "me,": 3120,
      "visión": 3121,
      "▁best": 3122,
      "▁empezar": 3123,
      "▁messi": 3124,
      "▁pienso": 3125,
      "▁tem": 3126,
      "ning": 3127,
      "all": 3128,
      "table": 3129,
      "quen": 3130,
      "▁lea": 3131,
      "▁cierto": 3132,
      "▁viv": 3133,
      "▁nic": 3134,
      "▁vino": 3135,
      "▁creciente": 3136,
      "▁ge": 3137,
      "able": 3138,
      "▁dejen": 3139,
      "▁mane": 3140,
      "▁cuatro": 3141,
      "▁bailando": 3142,
      "▁jajaj": 3143,
      "▁black": 3144,
      "▁bil": 3145,
      "▁esperan": 3146,
      "cir": 3147,
      "▁hagan": 3148,
      "▁impres": 3149,
      "way": 3150,
      "▁ener": 3151,
      "▁red": 3152,
      "▁ahor": 3153,
      "▁back": 3154,
      "▁acer": 3155,
      "11": 3156,
      "▁votar": 3157,
      "▁vien": 3158,
      "▁educación": 3159,
      "▁proyecto": 3160,
      "como": 3161,
      "▁bola": 3162,
      "▁23": 3163,
      "▁más.": 3164,
      "cina": 3165,
      "▁tremen": 3166,
      "idos": 3167,
      "ología": 3168,
      "▁justo": 3169,
      "▁;": 3170,
      "gación": 3171,
      "hora": 3172,
      "pare": 3173,
      "▁terminar": 3174,
      "▁sociedad": 3175,
      "▁culo": 3176,
      "teo": 3177,
      "tador": 3178,
      "tidad": 3179,
      "▁nuevos": 3180,
      "▁dipu": 3181,
      "io.": 3182,
      "▁tenes": 3183,
      "!!!.": 3184,
      "▁hol": 3185,
      "▁derechos": 3186,
      "ang": 3187,
      "▁ré": 3188,
      "▁deben": 3189,
      "▁2018": 3190,
      "▁esperar": 3191,
      "▁tren": 3192,
      "date": 3193,
      "▁campaña": 3194,
      "▁enter": 3195,
      "▁virus": 3196,
      "tino": 3197,
      "▁desapro": 3198,
      "▁decep": 3199,
      "▁econom": 3200,
      "▁cari": 3201,
      "uno": 3202,
      "▁democra": 3203,
      "▁genera": 3204,
      "dres": 3205,
      "▁vin": 3206,
      "▁caf": 3207,
      "▁cuanto": 3208,
      "▁vive": 3209,
      "▁faz": 3210,
      "coles": 3211,
      "▁darle": 3212,
      "▁bru": 3213,
      "tió": 3214,
      "▁app": 3215,
      "▁candida": 3216,
      "▁diri": 3217,
      "tili": 3218,
      "▁próximo": 3219,
      "▁seas": 3220,
      "▁guerra": 3221,
      "▁team": 3222,
      "▁dro": 3223,
      "▁pasando": 3224,
      "▁imagen": 3225,
      "mite": 3226,
      "diente": 3227,
      "▁idio": 3228,
      "▁camino": 3229,
      "▁seman": 3230,
      "▁descan": 3231,
      "▁//": 3232,
      "▁momentos": 3233,
      "▁cerca": 3234,
      "uito": 3235,
      "▁estados": 3236,
      "▁aus": 3237,
      "▁ninguna": 3238,
      "▁usa": 3239,
      "▁aaa": 3240,
      "▁rosa": 3241,
      "▁agotada": 3242,
      "▁win": 3243,
      "tí": 3244,
      "bes": 3245,
      "-0": 3246,
      "▁hambre": 3247,
      "▁pronto": 3248,
      "ieza": 3249,
      "▁40": 3250,
      "15": 3251,
      "udo": 3252,
      "▁partidos": 3253,
      "▁alcan": 3254,
      "▁ejemplo": 3255,
      "▁mel": 3256,
      "▁bebé": 3257,
      "dente": 3258,
      "▁señora": 3259,
      "gon": 3260,
      "gué": 3261,
      "▁sup": 3262,
      "▁silen": 3263,
      "villa": 3264,
      "iro": 3265,
      "▁jes": 3266,
      "▁she": 3267,
      "▁arran": 3268,
      "▁ó": 3269,
      "▁prepara": 3270,
      "▁esté": 3271,
      "▁meter": 3272,
      "▁llevo": 3273,
      "▁onda": 3274,
      "▁ber": 3275,
      "arme": 3276,
      "inal": 3277,
      "mente,": 3278,
      "ans": 3279,
      "▁any": 3280,
      "▁allá": 3281,
      "▁gesto": 3282,
      "▁¿por": 3283,
      "▁produc": 3284,
      "▁conoce": 3285,
      "ses": 3286,
      "▁entrar": 3287,
      "▁conten": 3288,
      "▁saboreando": 3289,
      "▁ocur": 3290,
      "▁avis": 3291,
      "▁vida,": 3292,
      "mn": 3293,
      "▁fuck": 3294,
      "▁amigas": 3295,
      "the": 3296,
      "▁&gt;": 3297,
      "▁web": 3298,
      "▁ala": 3299,
      "▁felicidad": 3300,
      "▁bomb": 3301,
      "▁malo": 3302,
      "▁obje": 3303,
      "▁quiera": 3304,
      "▁noches": 3305,
      "▁terror": 3306,
      "▁tierra": 3307,
      "▁sec": 3308,
      "▁vai": 3309,
      "p.": 3310,
      "▁ko": 3311,
      "▁barcel": 3312,
      "▁contar": 3313,
      "ky": 3314,
      "zan": 3315,
      "▁alber": 3316,
      "▁puto": 3317,
      "▁nooo": 3318,
      "▁cerveza": 3319,
      "▁sabemos": 3320,
      "▁dado": 3321,
      "aste": 3322,
      "▁desaprobación": 3323,
      "▁hubiera": 3324,
      "▁puesto": 3325,
      "▁beca": 3326,
      "▁hija": 3327,
      "▁local": 3328,
      "ude": 3329,
      "graf": 3330,
      "▁viejo": 3331,
      "tivas": 3332,
      "ugh": 3333,
      "▁mascar": 3334,
      "▁cuán": 3335,
      "▁color": 3336,
      "▁vivi": 3337,
      "▁opinión": 3338,
      "art": 3339,
      "▁ahre": 3340,
      "▁navidad": 3341,
      "ben": 3342,
      "▁repor": 3343,
      "▁defini": 3344,
      "▁rato": 3345,
      "▁sto": 3346,
      "▁preocupa": 3347,
      "▁luces": 3348,
      "▁signo": 3349,
      "▁vieja": 3350,
      "▁minha": 3351,
      ":30": 3352,
      "▁seu": 3353,
      ".\"": 3354,
      "cr": 3355,
      "▁consegui": 3356,
      "▁youtu": 3357,
      "▁papel": 3358,
      "▁cra": 3359,
      "▁stream": 3360,
      "▁protes": 3361,
      "▁felicidades": 3362,
      "dieron": 3363,
      "▁pública": 3364,
      "▁demos": 3365,
      "17": 3366,
      "▁blanca": 3367,
      "ete": 3368,
      "▁joven": 3369,
      "▁spo": 3370,
      "▁película": 3371,
      "quis": 3372,
      "lin": 3373,
      "▁merece": 3374,
      "▁fri": 3375,
      "▁chil": 3376,
      "▁perfec": 3377,
      "▁aso": 3378,
      "▁detal": 3379,
      "▁ara": 3380,
      "▁world": 3381,
      "▁aprove": 3382,
      "▁pueda": 3383,
      "▁tecn": 3384,
      "▁desespera": 3385,
      "ket": 3386,
      "▁noticia": 3387,
      "▁mando": 3388,
      "▁ár": 3389,
      "▁tapados": 3390,
      "▁trofe": 3391,
      "guay": 3392,
      "▁lluvia": 3393,
      "▁símbolo": 3394,
      "▁oportunidad": 3395,
      "▁comien": 3396,
      "mos.": 3397,
      "▁labor": 3398,
      "▁hoy,": 3399,
      "▁sonro": 3400,
      "▁musical": 3401,
      "▁quedo": 3402,
      "▁habrá": 3403,
      "▁eran": 3404,
      "▁maes": 3405,
      "cida": 3406,
      "▁sha": 3407,
      "umen": 3408,
      "50": 3409,
      "sar": 3410,
      "ctura": 3411,
      "ero,": 3412,
      "▁bastante": 3413,
      "▁américa": 3414,
      "▁mín": 3415,
      "▁basta": 3416,
      "icado": 3417,
      "cent": 3418,
      "icion": 3419,
      "ding": 3420,
      "▁venir": 3421,
      "éndo": 3422,
      "mos,": 3423,
      "▁bri": 3424,
      "▁tambien": 3425,
      "▁mari": 3426,
      "▁voc": 3427,
      "▁amlo": 3428,
      "bia": 3429,
      "▁pensé": 3430,
      "▁need": 3431,
      "▁exig": 3432,
      "me.": 3433,
      "▁todo,": 3434,
      "▁esti": 3435,
      "ero.": 3436,
      "\"..": 3437,
      "▁cd": 3438,
      "▁escucha": 3439,
      "ker": 3440,
      "▁boy": 3441,
      "itan": 3442,
      "▁opera": 3443,
      "▁obra": 3444,
      "▁militar": 3445,
      "▁durmiendo": 3446,
      "▁presiden": 3447,
      "▁dev": 3448,
      "▁opos": 3449,
      "▁trofeo": 3450,
      "ying": 3451,
      "▁barcelona": 3452,
      "▁tuvi": 3453,
      "▁sorpren": 3454,
      "▁internet": 3455,
      "▁obvio": 3456,
      "▁aleg": 3457,
      "▁recuerdo": 3458,
      "tarse": 3459,
      "ach": 3460,
      "▁gusto": 3461,
      "tín": 3462,
      "dura": 3463,
      "i.": 3464,
      "ianza": 3465,
      "▁correc": 3466,
      "▁\"s": 3467,
      "▁carrera": 3468,
      "▁sonrojada": 3469,
      "▁número": 3470,
      "▁josé": 3471,
      "▁rápido": 3472,
      "▁mate": 3473,
      "▁pais": 3474,
      "▁)": 3475,
      "▁fecha": 3476,
      "icó": 3477,
      "▁novia": 3478,
      "▁escuela": 3479,
      "ions": 3480,
      "▁fiscal": 3481,
      "lidad": 3482,
      "andom": 3483,
      "▁insta": 3484,
      "▁ase": 3485,
      "▁conven": 3486,
      "al.": 3487,
      "áis": 3488,
      "▁ulti": 3489,
      "▁estudiar": 3490,
      "leo": 3491,
      "▁hermana": 3492,
      "▁uso": 3493,
      "▁clases": 3494,
      "▁futbol": 3495,
      "gor": 3496,
      "▁duda": 3497,
      "▁profesional": 3498,
      "▁llegó": 3499,
      "▁capital": 3500,
      "▁golpe": 3501,
      "▁ingres": 3502,
      "▁die": 3503,
      "▁manif": 3504,
      "▁cree": 3505,
      "▁cerrado": 3506,
      "line": 3507,
      "▁juega": 3508,
      "món": 3509,
      "rano": 3510,
      "▁aire": 3511,
      "▁foi": 3512,
      "miaw": 3513,
      "▁fras": 3514,
      "▁solid": 3515,
      "▁bien.": 3516,
      "bli": 3517,
      "ma,": 3518,
      "▁celular": 3519,
      "▁éx": 3520,
      "curso": 3521,
      "gues": 3522,
      "▁jeje": 3523,
      "zco": 3524,
      "▁europa": 3525,
      "▁entrevista": 3526,
      "▁kar": 3527,
      "▁paci": 3528,
      "▁encuentro": 3529,
      "▁seguimos": 3530,
      "hs": 3531,
      "▁memo": 3532,
      "▁lín": 3533,
      "▁hospital": 3534,
      "▁rid": 3535,
      "▁lor": 3536,
      "respon": 3537,
      "▁consul": 3538,
      "▁prome": 3539,
      "▁viva": 3540,
      "▁dici": 3541,
      "▁datos": 3542,
      "▁mexic": 3543,
      "▁siga": 3544,
      "▁pequeño": 3545,
      "▁ee": 3546,
      "▁niña": 3547,
      "chez": 3548,
      "▁moren": 3549,
      "▁regalo": 3550,
      "▁llen": 3551,
      "▁stor": 3552,
      "pular": 3553,
      "▁quin": 3554,
      "xs": 3555,
      "▁mente": 3556,
      "▁delin": 3557,
      "▁zona": 3558,
      "ándose": 3559,
      "▁l'": 3560,
      "zada": 3561,
      "ré": 3562,
      "▁baja": 3563,
      "tarme": 3564,
      "▁hin": 3565,
      "día": 3566,
      "ár": 3567,
      "▁significa": 3568,
      "tulo": 3569,
      "▁gil": 3570,
      "▁champ": 3571,
      "▁oh": 3572,
      "▁hd": 3573,
      "▁denun": 3574,
      "▁mur": 3575,
      "lix": 3576,
      "usi": 3577,
      "!!.": 3578,
      "ares": 3579,
      "z,": 3580,
      "▁aga": 3581,
      "▁jugadores": 3582,
      "▁dó": 3583,
      "▁diario": 3584,
      "▁vacaciones": 3585,
      "ile": 3586,
      "diciones": 3587,
      "bida": 3588,
      "▁comunidad": 3589,
      "bres": 3590,
      "▁ropa": 3591,
      "▁medios": 3592,
      "▁edad": 3593,
      "▁pessoas": 3594,
      "▁medidas": 3595,
      "▁julio": 3596,
      "▁joder": 3597,
      "cheta": 3598,
      "▁calidad": 3599,
      "▁dont": 3600,
      "up": 3601,
      "▁cultura": 3602,
      "▁telé": 3603,
      "▁rob": 3604,
      "▁abor": 3605,
      "▁empi": 3606,
      "▁todo.": 3607,
      "▁acu": 3608,
      "▁imagin": 3609,
      "▁lig": 3610,
      "▁boli": 3611,
      "▁absolu": 3612,
      "▁respuesta": 3613,
      "▁mexico": 3614,
      "go.": 3615,
      "▁juro": 3616,
      "▁orto": 3617,
      "hor": 3618,
      "▁globo": 3619,
      "▁ran": 3620,
      "▁depen": 3621,
      "▁apa": 3622,
      "▁atrás": 3623,
      "▁patr": 3624,
      "▁cere": 3625,
      "▁partir": 3626,
      "▁orig": 3627,
      "▁ecuador": 3628,
      "▁deje": 3629,
      "▁café": 3630,
      "▁salió": 3631,
      "▁cumpl": 3632,
      "unt": 3633,
      "▁did": 3634,
      "▁uri": 3635,
      "▁isso": 3636,
      "▁resto": 3637,
      "▁admi": 3638,
      "▁móvil": 3639,
      "▁chec": 3640,
      "al,": 3641,
      "▁técn": 3642,
      "▁pongo": 3643,
      "▁você": 3644,
      "▁igles": 3645,
      "ving": 3646,
      "jun": 3647,
      "▁utili": 3648,
      "izado": 3649,
      "gura": 3650,
      "gir": 3651,
      "▁feel": 3652,
      "▁china": 3653,
      "▁ocu": 3654,
      "▁femin": 3655,
      "em": 3656,
      "cle": 3657,
      "hy": 3658,
      "▁político": 3659,
      "▁only": 3660,
      "mación": 3661,
      "▁viola": 3662,
      "▁ido": 3663,
      "▁alivio": 3664,
      "▁hilo": 3665,
      "▁pele": 3666,
      "▁ejer": 3667,
      "ctubre": 3668,
      "▁chica": 3669,
      "▁info": 3670,
      "▁gratis": 3671,
      "damos": 3672,
      "▁bos": 3673,
      "▁vc": 3674,
      "iciente": 3675,
      "▁imposible": 3676,
      "▁arro": 3677,
      "▁tenido": 3678,
      "▁lejos": 3679,
      "▁recomen": 3680,
      "▁apor": 3681,
      "▁¿cu": 3682,
      "▁decirl": 3683,
      "▁mtvmiaw": 3684,
      "▁pp": 3685,
      "▁leg": 3686,
      "▁because": 3687,
      "▁loca": 3688,
      "▁mag": 3689,
      "ilidad": 3690,
      "▁inteli": 3691,
      "▁eso,": 3692,
      "mber": 3693,
      "ste": 3694,
      "▁algunas": 3695,
      "▁???": 3696,
      "cola": 3697,
      "▁decepcion": 3698,
      "▁youtube": 3699,
      "orn": 3700,
      "▁diver": 3701,
      "▁river": 3702,
      "▁tá": 3703,
      "▁refle": 3704,
      "▁chincheta": 3705,
      "▁inicia": 3706,
      "▁atra": 3707,
      "▁dese": 3708,
      "▁want": 3709,
      "▁años,": 3710,
      "▁levantada": 3711,
      "▁hal": 3712,
      "▁constru": 3713,
      "▁maravil": 3714,
      "fuer": 3715,
      "▁fantas": 3716,
      "▁olvidar": 3717,
      "▁catal": 3718,
      "▁repro": 3719,
      "▁colec": 3720,
      "▁chicos": 3721,
      "▁their": 3722,
      "▁saca": 3723,
      "an,": 3724,
      "zz": 3725,
      "pla": 3726,
      "ull": 3727,
      "▁sociales": 3728,
      "▁jugando": 3729,
      "16": 3730,
      "▁refer": 3731,
      "▁venga": 3732,
      "▁directo": 3733,
      "▁esca": 3734,
      "puesto": 3735,
      "▁esperamos": 3736,
      "▁más,": 3737,
      "▁disfrutar": 3738,
      "ma.": 3739,
      "▁libros": 3740,
      "▁pide": 3741,
      "▁naran": 3742,
      "▁nas": 3743,
      "▁subir": 3744,
      "▁viaje": 3745,
      "▁anun": 3746,
      "▁exac": 3747,
      "lash": 3748,
      "▁defender": 3749,
      "▁giratorios": 3750,
      "▁don't": 3751,
      "mg": 3752,
      "uras": 3753,
      "rito": 3754,
      "▁fl": 3755,
      "bió": 3756,
      "▁varios": 3757,
      "▁make": 3758,
      "▁it's": 3759,
      "▁macri": 3760,
      "▁descar": 3761,
      "▁pé": 3762,
      "▁doble": 3763,
      "▁tin": 3764,
      "▁anal": 3765,
      "▁ofre": 3766,
      "▁rus": 3767,
      "▁ind": 3768,
      "▁dólar": 3769,
      "▁apre": 3770,
      "▁participa": 3771,
      "co,": 3772,
      "▁mayoría": 3773,
      "▁distin": 3774,
      "▁=": 3775,
      "▁ponen": 3776,
      "▁jornada": 3777,
      "▁mirar": 3778,
      "▁vomi": 3779,
      "▁pelig": 3780,
      "▁banda": 3781,
      "▁paga": 3782,
      "▁control": 3783,
      "▁sabía": 3784,
      "▁amp": 3785,
      "▁octubre": 3786,
      "▁sil": 3787,
      "▁vemos": 3788,
      "▁miér": 3789,
      "▁¿cómo": 3790,
      "ku": 3791,
      "▁marcha": 3792,
      "▁over": 3793,
      "ustra": 3794,
      "xi": 3795,
      "▁war": 3796,
      "pec": 3797,
      "tito": 3798,
      "▁impues": 3799,
      "▁totalmente": 3800,
      "tea": 3801,
      "▁creen": 3802,
      "▁natural": 3803,
      "▁adelante": 3804,
      "▁aprender": 3805,
      "alu": 3806,
      "biendo": 3807,
      "lada": 3808,
      "de,": 3809,
      "▁políticos": 3810,
      "▁duer": 3811,
      "▁ron": 3812,
      "▁canciones": 3813,
      "▁pareja": 3814,
      "ira": 3815,
      "▁cae": 3816,
      "▁kca": 3817,
      "2.": 3818,
      "▁frien": 3819,
      "▁tuve": 3820,
      "▁falle": 3821,
      "pira": 3822,
      "▁non": 3823,
      "▁chor": 3824,
      "▁congreso": 3825,
      "▁compartir": 3826,
      "▁there": 3827,
      "▁provin": 3828,
      "ally": 3829,
      "▁tantas": 3830,
      "▁humor": 3831,
      "iso": 3832,
      "cara": 3833,
      "▁bonita": 3834,
      "▁dedo": 3835,
      "▁supon": 3836,
      "tio": 3837,
      "end": 3838,
      "▁quedan": 3839,
      "▁cam": 3840,
      "▁llegue": 3841,
      "▁democracia": 3842,
      "quer": 3843,
      "▁thank": 3844,
      "▁seria": 3845,
      "mx": 3846,
      "▁colab": 3847,
      "de.": 3848,
      "terna": 3849,
      "▁life": 3850,
      "▁celebra": 3851,
      "▁pic": 3852,
      "iantina": 3853,
      "▁ries": 3854,
      "▁quiz": 3855,
      "▁teléfono": 3856,
      "3.": 3857,
      "▁mayo": 3858,
      "tions": 3859,
      "▁proyec": 3860,
      "▁silencio": 3861,
      "▁palabra": 3862,
      "▁llev": 3863,
      "▁pablo": 3864,
      "▁siguien": 3865,
      "▁benef": 3866,
      "▁arte": 3867,
      "ópez": 3868,
      "▁disponible": 3869,
      "▁empresa": 3870,
      "▁plaza": 3871,
      "cti": 3872,
      "mental": 3873,
      "▁tengan": 3874,
      "▁agre": 3875,
      "jd": 3876,
      "ará": 3877,
      "?!": 3878,
      "▁abril": 3879,
      "▁lol": 3880,
      "▁adver": 3881,
      "▁pho": 3882,
      "ón,": 3883,
      "▁ste": 3884,
      "▁já": 3885,
      "▁acuer": 3886,
      "▁bron": 3887,
      "▁¿y": 3888,
      "▁preven": 3889,
      "▁evitar": 3890,
      "▁despe": 3891,
      "itario": 3892,
      "▁cami": 3893,
      "ciales": 3894,
      "ings": 3895,
      "▁compra": 3896,
      "▁efec": 3897,
      "▁visita": 3898,
      "▁peda": 3899,
      "▁wat": 3900,
      "c.": 3901,
      "olución": 3902,
      "▁¡¡": 3903,
      "yendo": 3904,
      "▁(?": 3905,
      "ric": 3906,
      "▁prensa": 3907,
      "▁perú": 3908,
      "gle": 3909,
      "sen": 3910,
      "▁js": 3911,
      "▁sala": 3912,
      "tiembre": 3913,
      "▁sp": 3914,
      "▁lópez": 3915,
      "▁verano": 3916,
      "an.": 3917,
      "▁gab": 3918,
      "▁funda": 3919,
      "▁ana": 3920,
      "ft": 3921,
      "▁big": 3922,
      "ny": 3923,
      "▁cabr": 3924,
      "▁defensa": 3925,
      "▁orgullo": 3926,
      "zado": 3927,
      "▁siii": 3928,
      "▁venta": 3929,
      "▁goberna": 3930,
      "taje": 3931,
      "▁digan": 3932,
      "rica": 3933,
      "▁estudio": 3934,
      "▁3.": 3935,
      "kes": 3936,
      "▁líder": 3937,
      "rido": 3938,
      "▁miles": 3939,
      "▁prohi": 3940,
      "▁prepar": 3941,
      "▁oro": 3942,
      "nt": 3943,
      "▁afec": 3944,
      "▁recuerda": 3945,
      "▁barrio": 3946,
      "▁ner": 3947,
      "▁así,": 3948,
      "▁repe": 3949,
      "▁colegio": 3950,
      "▁concha": 3951,
      "▁feo": 3952,
      "bamos": 3953,
      "▁uru": 3954,
      "▁hacerlo": 3955,
      "▁dani": 3956,
      "▁tiempos": 3957,
      "▁way": 3958,
      "▁game": 3959,
      "▁expresión": 3960,
      "▁26": 3961,
      "▁vista": 3962,
      "▁padres": 3963,
      "▁dieron": 3964,
      "miso": 3965,
      "▁esfuer": 3966,
      "sito": 3967,
      "▁orgullos": 3968,
      "▁pedi": 3969,
      "▁empresas": 3970,
      ",.": 3971,
      "▁diferencia": 3972,
      "▁horrible": 3973,
      "▁emer": 3974,
      "▁vou": 3975,
      "▁error": 3976,
      "▁masa": 3977,
      "▁28": 3978,
      "14": 3979,
      "▁años.": 3980,
      "ley": 3981,
      "▁máx": 3982,
      "▁enga": 3983,
      "▁cansada": 3984,
      "▁ahi": 3985,
      "mico": 3986,
      "▁extre": 3987,
      "▁mental": 3988,
      "▁netf": 3989,
      "▁basura": 3990,
      "▁suspen": 3991,
      "▁bre": 3992,
      "▁neu": 3993,
      "▁tuit": 3994,
      "▁ل": 3995,
      "▁caer": 3996,
      "▁siente": 3997,
      "▁trabajando": 3998,
      "▁gustaría": 3999,
      "ure": 4000,
      "eee": 4001,
      "▁tec": 4002,
      "sapp": 4003,
      "ming": 4004,
      "▁netflix": 4005,
      "k.": 4006,
      "ciona": 4007,
      "▁sel": 4008,
      "▁tuvo": 4009,
      "▁crí": 4010,
      "▁mig": 4011,
      "▁jó": 4012,
      "▁27": 4013,
      "fiero": 4014,
      "▁empieza": 4015,
      "▁him": 4016,
      "bum": 4017,
      "mado": 4018,
      "isis": 4019,
      "iar": 4020,
      "▁recordar": 4021,
      "▁mode": 4022,
      "▁pus": 4023,
      "▁iden": 4024,
      "▁stan": 4025,
      "▁really": 4026,
      "sel": 4027,
      "▁cic": 4028,
      "▁ses": 4029,
      "▁esse": 4030,
      "tivamente": 4031,
      "ón.": 4032,
      "za,": 4033,
      "▁banco": 4034,
      "▁llena": 4035,
      "mel": 4036,
      "mán": 4037,
      "▁despier": 4038,
      "▁been": 4039,
      "till": 4040,
      "▁septiembre": 4041,
      "▁dise": 4042,
      "▁flash": 4043,
      "▁experiencia": 4044,
      "▁pinche": 4045,
      "▁jajaja": 4046,
      "▁insul": 4047,
      "▁delincu": 4048,
      "▁país.": 4049,
      "▁jóven": 4050,
      "▁bl": 4051,
      "▁mueca": 4052,
      "▁naranja": 4053,
      "▁ansi": 4054,
      "▁palo": 4055,
      "▁fís": 4056,
      "1.": 4057,
      "onas": 4058,
      "▁santia": 4059,
      "▁d'": 4060,
      "▁gr": 4061,
      "▁mani": 4062,
      "▁volvi": 4063,
      "▁critic": 4064,
      "get": 4065,
      "▁consu": 4066,
      "▁segura": 4067,
      "▁post": 4068,
      "▁pedro": 4069,
      "▁países": 4070,
      "cí": 4071,
      ",,": 4072,
      "▁&lt;3": 4073,
      "▁hacemos": 4074,
      "▁paro": 4075,
      "▁please": 4076,
      "ós": 4077,
      "iera": 4078,
      "▁explica": 4079,
      "▁oli": 4080,
      "▁nove": 4081,
      "logo": 4082,
      "▁why": 4083,
      "▁genial": 4084,
      "cidos": 4085,
      "▁puro": 4086,
      "▁never": 4087,
      "terior": 4088,
      "▁papa": 4089,
      "▁again": 4090,
      "▁universidad": 4091,
      "▁despues": 4092,
      "ducir": 4093,
      "▁intent": 4094,
      "▁curso": 4095,
      "▁querido": 4096,
      "clu": 4097,
      "▁ál": 4098,
      "▁tb": 4099,
      "ole": 4100,
      "▁jar": 4101,
      "▁pasan": 4102,
      "fel": 4103,
      "▁haz": 4104,
      "▁reti": 4105,
      "▁first": 4106,
      "ula": 4107,
      "mexico": 4108,
      "▁caliente": 4109,
      "▁popular": 4110,
      "▁europe": 4111,
      "▁clara": 4112,
      "▁amaz": 4113,
      "▁whatsapp": 4114,
      "▁recién": 4115,
      "▁presente": 4116,
      "▁agos": 4117,
      "▁sán": 4118,
      "▁excla": 4119,
      "▁ellas": 4120,
      "▁hablan": 4121,
      "▁animal": 4122,
      "tien": 4123,
      "▁cualquiera": 4124,
      "▁contr": 4125,
      "▁asesina": 4126,
      "▁legal": 4127,
      "▁entrena": 4128,
      "▁histó": 4129,
      "lle": 4130,
      "▁puso": 4131,
      "▁enfada": 4132,
      "tle": 4133,
      "▁salga": 4134,
      "▁salen": 4135,
      "▁ligeramente": 4136,
      "cionar": 4137,
      "▁llego": 4138,
      "▁puerto": 4139,
      "▁rin": 4140,
      "vor": 4141,
      "▁sirve": 4142,
      "▁nuevas": 4143,
      "tilla": 4144,
      "▁historias": 4145,
      "▁decl": 4146,
      "▁siquiera": 4147,
      "▁cola": 4148,
      "▁quedó": 4149,
      "mé": 4150,
      "▁cala": 4151,
      "▁buscando": 4152,
      "wa": 4153,
      "▁miércoles": 4154,
      "▁dejan": 4155,
      "▁jajajajaja": 4156,
      "talla": 4157,
      "▁recha": 4158,
      "anti": 4159,
      "za.": 4160,
      "▁dormi": 4161,
      "▁línea": 4162,
      "▁would": 4163,
      "tale": 4164,
      "▁dul": 4165,
      "▁gener": 4166,
      "▁convi": 4167,
      "▁deseo": 4168,
      "▁cuesta": 4169,
      "ca,": 4170,
      "co.": 4171,
      "▁gustan": 4172,
      "▁conversa": 4173,
      "▁ministro": 4174,
      "▁desarrollo": 4175,
      "▁relación": 4176,
      "▁estaría": 4177,
      "▁docu": 4178,
      "▁rock": 4179,
      "trando": 4180,
      "▁tae": 4181,
      "by": 4182,
      "▁after": 4183,
      "▁escribir": 4184,
      "▁sui": 4185,
      "▁today": 4186,
      "▁nomb": 4187,
      "▁trai": 4188,
      "▁suce": 4189,
      "▁mío": 4190,
      "▁estuvo": 4191,
      "▁encar": 4192,
      "▁pido": 4193,
      "▁wey": 4194,
      "▁muertos": 4195,
      "▁mascarilla": 4196,
      "▁semanas": 4197,
      "▁necesario": 4198,
      "▁mitad": 4199,
      "▁admin": 4200,
      "▁costa": 4201,
      "▁pendejo": 4202,
      "▁dicta": 4203,
      "40": 4204,
      "▁ang": 4205,
      "▁diciembre": 4206,
      "▁pág": 4207,
      "▁presu": 4208,
      "▁puse": 4209,
      "▁carajo": 4210,
      "ulo": 4211,
      "▁mismos": 4212,
      "▁largo": 4213,
      "▁marzo": 4214,
      "mentar": 4215,
      "▁digital": 4216,
      "▁tes": 4217,
      "uelo": 4218,
      "▁recur": 4219,
      "tiv": 4220,
      "ista,": 4221,
      "▁flo": 4222,
      "▁muero": 4223,
      "▁caga": 4224,
      "▁cabal": 4225,
      "▁muito": 4226,
      "ví": 4227,
      "▁army": 4228,
      "h,": 4229,
      "▁podes": 4230,
      "▁calles": 4231,
      "▁exclamación": 4232,
      "gg": 4233,
      "▁eeuu": 4234,
      "▁lamenta": 4235,
      "5.": 4236,
      "▁capaz": 4237,
      "▁\"es": 4238,
      "▁andar": 4239,
      "ze": 4240,
      "▁week": 4241,
      "ezo": 4242,
      "ro,": 4243,
      "▁them": 4244,
      "▁girl": 4245,
      "▁amena": 4246,
      "2018": 4247,
      "▁estren": 4248,
      "▁mundo.": 4249,
      "ble.": 4250,
      "▁videos": 4251,
      "▁bio": 4252,
      "▁cuidar": 4253,
      "▁declara": 4254,
      "▁últimos": 4255,
      "▁desesperada": 4256,
      "▁solici": 4257,
      "▁penal": 4258,
      "▁próxima": 4259,
      "▁sien": 4260,
      "▁sou": 4261,
      "▁vote": 4262,
      "zó": 4263,
      "7.": 4264,
      "▁entrega": 4265,
      "▁fic": 4266,
      "▁mata": 4267,
      "▁cielo": 4268,
      "▁espacio": 4269,
      "zados": 4270,
      "▁too": 4271,
      "tear": 4272,
      "▁exo": 4273,
      "▁sar": 4274,
      "▁fondo": 4275,
      "▁anoche": 4276,
      "▁pruebas": 4277,
      "▁debate": 4278,
      "cular": 4279,
      "▁día,": 4280,
      "rés": 4281,
      "▁hojas": 4282,
      "▁crimin": 4283,
      "▁proba": 4284,
      "▁pobla": 4285,
      "▁finde": 4286,
      "cta": 4287,
      "▁recla": 4288,
      "▁colombi": 4289,
      "▁central": 4290,
      "tifica": 4291,
      "▁corrupción": 4292,
      "▁yo,": 4293,
      "▁poquito": 4294,
      "▁apl": 4295,
      "_de": 4296,
      "queo": 4297,
      "▁playa": 4298,
      "▁porfa": 4299,
      "mente.": 4300,
      "▁metro": 4301,
      "▁maría": 4302,
      "▁home": 4303,
      "crip": 4304,
      "ico,": 4305,
      "ista.": 4306,
      "▁acabar": 4307,
      "▁nomas": 4308,
      "▁representa": 4309,
      "▁gh": 4310,
      "pia": 4311,
      "vez": 4312,
      "▁cn": 4313,
      "▁participar": 4314,
      "▁villa": 4315,
      "▁adop": 4316,
      "/0": 4317,
      "▁estuvi": 4318,
      "13": 4319,
      "▁temprano": 4320,
      "▁vienen": 4321,
      "▁miguel": 4322,
      "▁maravillos": 4323,
      "▁conozco": 4324,
      "chu": 4325,
      "males": 4326,
      "▁sueños": 4327,
      "follow": 4328,
      "▁resultados": 4329,
      "▁univers": 4330,
      "▁recibir": 4331,
      "▁estadio": 4332,
      "▁narco": 4333,
      "wer": 4334,
      "▁causa": 4335,
      "▁mia": 4336,
      "▁pesar": 4337,
      "▁publicar": 4338,
      "▁piensa": 4339,
      "▁ando": 4340,
      "▁publi": 4341,
      "tiene": 4342,
      "▁novi": 4343,
      "▁economía": 4344,
      "▁seguidores": 4345,
      "jeron": 4346,
      "▁deten": 4347,
      "monio": 4348,
      "hol": 4349,
      "ila": 4350,
      "▁bienven": 4351,
      "▁escuchando": 4352,
      "▁online": 4353,
      "ws": 4354,
      "▁corte": 4355,
      "_de_": 4356,
      "arte": 4357,
      "▁prác": 4358,
      "▁cuentas": 4359,
      "h.": 4360,
      "▁think": 4361,
      "bido": 4362,
      "▁sánchez": 4363,
      "tores": 4364,
      "▁camis": 4365,
      "▁cagar": 4366,
      "▁wan": 4367,
      "cons": 4368,
      "ters": 4369,
      "▁servicios": 4370,
      "▁inicio": 4371,
      "ñe": 4372,
      "▁tenia": 4373,
      "▁won": 4374,
      "turas": 4375,
      "▁rica": 4376,
      "▁baj": 4377,
      "tró": 4378,
      "kook": 4379,
      "▁mercado": 4380,
      "▁discul": 4381,
      "▁mmm": 4382,
      "▁polit": 4383,
      "has": 4384,
      "▁capí": 4385,
      "▁acompañ": 4386,
      "▁ger": 4387,
      "▁árbol": 4388,
      "▁sangre": 4389,
      "ron": 4390,
      "▁repu": 4391,
      "▁pala": 4392,
      "▁denuncia": 4393,
      "▁spe": 4394,
      "▁arreg": 4395,
      "ública": 4396,
      "▁tiro": 4397,
      "▁90": 4398,
      "▁vea": 4399,
      "gs": 4400,
      "ramos": 4401,
      "▁bella": 4402,
      "idad.": 4403,
      "voz": 4404,
      "▁disco": 4405,
      "cus": 4406,
      "▁incluso": 4407,
      "isla": 4408,
      "▁bajar": 4409,
      "▁corriendo": 4410,
      "▁tex": 4411,
      "▁apenas": 4412,
      "▁essa": 4413,
      ":(": 4414,
      "▁alco": 4415,
      "▁arma": 4416,
      "▁moral": 4417,
      "xa": 4418,
      "▁decía": 4419,
      "▁fans": 4420,
      "▁à": 4421,
      "▁dem": 4422,
      "▁vent": 4423,
      "int": 4424,
      "todo": 4425,
      "-2": 4426,
      "ga,": 4427,
      "▁grogui": 4428,
      "'re": 4429,
      "jus": 4430,
      "▁temas": 4431,
      "ina,": 4432,
      "▁televisión": 4433,
      "▁eje": 4434,
      "▁mul": 4435,
      "▁huel": 4436,
      "tales": 4437,
      "▁bici": 4438,
      "▁ud": 4439,
      "▁vayan": 4440,
      "▁torne": 4441,
      "▁gén": 4442,
      "ctr": 4443,
      "▁colisión": 4444,
      "▁leo": 4445,
      "▁yo:": 4446,
      "▁sonrisa": 4447,
      "▁tho": 4448,
      "▁consecu": 4449,
      "▁eso.": 4450,
      "tui": 4451,
      "▁diferente": 4452,
      "bio": 4453,
      "tes,": 4454,
      "▁estudiantes": 4455,
      "▁tour": 4456,
      "▁mesa": 4457,
      "▁reac": 4458,
      "▁daño": 4459,
      "▁éxito": 4460,
      "▁lograr": 4461,
      "roso": 4462,
      "▁argu": 4463,
      "▁dejó": 4464,
      "pó": 4465,
      "ey": 4466,
      "▁mol": 4467,
      "▁modo": 4468,
      "▁dices": 4469,
      "▁asus": 4470,
      "▁mía": 4471,
      "▁viento": 4472,
      "▁día.": 4473,
      "▁sigan": 4474,
      "▁organiza": 4475,
      "▁dign": 4476,
      "ciones.": 4477,
      "▁somb": 4478,
      "▁80": 4479,
      "▁free": 4480,
      "▁comentarios": 4481,
      "▁simplemente": 4482,
      "erva": 4483,
      "▁neta": 4484,
      "cera": 4485,
      "gados": 4486,
      "▁distancia": 4487,
      "▁let": 4488,
      "▁gonz": 4489,
      "lip": 4490,
      "▁els": 4491,
      "▁tengas": 4492,
      "▁sexual": 4493,
      "▁recuper": 4494,
      "▁jóvenes": 4495,
      "ily": 4496,
      "▁huevo": 4497,
      "▁¿no": 4498,
      "▁inver": 4499,
      "▁stu": 4500,
      "▁link": 4501,
      "▁read": 4502,
      "▁pd": 4503,
      "▁??": 4504,
      "cionales": 4505,
      "▁preci": 4506,
      "▁look": 4507,
      "▁arco": 4508,
      "▁guer": 4509,
      "▁mier": 4510,
      "▁amista": 4511,
      "▁prueba": 4512,
      "▁cuál": 4513,
      "▁stop": 4514,
      "▁república": 4515,
      "▁enfadada": 4516,
      "▁caus": 4517,
      "▁chocola": 4518,
      "▁imb": 4519,
      "▁casa,": 4520,
      "▁enor": 4521,
      "▁mínimo": 4522,
      "▁baby": 4523,
      "▁cai": 4524,
      "▁estaban": 4525,
      "▁ansiedad": 4526,
      "▁present": 4527,
      "chan": 4528,
      "▁miss": 4529,
      "▁urgente": 4530,
      "ca.": 4531,
      "▁gesti": 4532,
      "ro.": 4533,
      "▁necesitamos": 4534,
      "▁trabajadores": 4535,
      "▁ná": 4536,
      "▁goles": 4537,
      "▁conden": 4538,
      "▁sensa": 4539,
      "▁into": 4540,
      "eets": 4541,
      "ate": 4542,
      "dri": 4543,
      "▁campo": 4544,
      "▁feste": 4545,
      "▁medic": 4546,
      "▁ador": 4547,
      "▁quede": 4548,
      "▁santiago": 4549,
      "▁fracas": 4550,
      "gimen": 4551,
      "ways": 4552,
      "itch": 4553,
      "▁cristi": 4554,
      "▁acces": 4555,
      "▁ot": 4556,
      "lito": 4557,
      "p:": 4558,
      "▁deberían": 4559,
      "▁latiendo": 4560,
      "▁advertencia": 4561,
      "▁cab": 4562,
      "▁interesante": 4563,
      "pes": 4564,
      "▁extraña": 4565,
      "mática": 4566,
      "▁paja": 4567,
      "teros": 4568,
      "▁mantener": 4569,
      "▁wal": 4570,
      "▁mach": 4571,
      "ciones,": 4572,
      "▁bad": 4573,
      "▁triun": 4574,
      "▁condu": 4575,
      "mate": 4576,
      "medad": 4577,
      "▁elector": 4578,
      "▁felices": 4579,
      "▁ras": 4580,
      "▁destru": 4581,
      "▁vomitando": 4582,
      "__": 4583,
      "▁que,": 4584,
      "▁cuándo": 4585,
      "▁casa.": 4586,
      "▁spa": 4587,
      "▁jung": 4588,
      "pul": 4589,
      "▁ciudadanos": 4590,
      "▁equipos": 4591,
      "▁quisiera": 4592,
      "ana.": 4593,
      "▁dura": 4594,
      "cita": 4595,
      "▁proceso": 4596,
      "▁resultado": 4597,
      "-1": 4598,
      "▁martín": 4599,
      "▁kcamexico": 4600,
      "▁vox": 4601,
      "▁ed": 4602,
      "unta": 4603,
      "chando": 4604,
      "▁últimas": 4605,
      "▁tea": 4606,
      "▁épo": 4607,
      "▁indus": 4608,
      "gracias": 4609,
      "▁zapa": 4610,
      "▁ital": 4611,
      "puestas": 4612,
      "▁feder": 4613,
      "remos": 4614,
      "ico.": 4615,
      "▁cargo": 4616,
      "▁tantos": 4617,
      "llar": 4618,
      "▁sk": 4619,
      "dra": 4620,
      "▁pobres": 4621,
      "▁contrario": 4622,
      "▁preten": 4623,
      "▁jaja.": 4624,
      "▁selección": 4625,
      "taria": 4626,
      "▁listo": 4627,
      "z.": 4628,
      "▁eta": 4629,
      "rero": 4630,
      "ana,": 4631,
      "hhh": 4632,
      "istemo": 4633,
      "▁clás": 4634,
      "▁still": 4635,
      "▁base": 4636,
      "▁robo": 4637,
      "▁entrada": 4638,
      "▁puerta": 4639,
      "▁suficiente": 4640,
      "4.": 4641,
      "▁campeón": 4642,
      "▁bás": 4643,
      "fff": 4644,
      "ández": 4645,
      "ga.": 4646,
      "ense": 4647,
      "▁todos.": 4648,
      "▁siguiente": 4649,
      "▁dibu": 4650,
      "dilla": 4651,
      "u.": 4652,
      "▁juegos": 4653,
      "▁piz": 4654,
      "tem": 4655,
      "▁caca": 4656,
      "▁cár": 4657,
      "▁debemos": 4658,
      "▁mami": 4659,
      "arias": 4660,
      "▁febr": 4661,
      "▁hablo": 4662,
      "▁anto": 4663,
      "im": 4664,
      "inho": 4665,
      "▁necesidad": 4666,
      "▁escon": 4667,
      "gna": 4668,
      "▁mete": 4669,
      "▁conte": 4670,
      "▁allí": 4671,
      "▁sof": 4672,
      "▁anivers": 4673,
      "ismo.": 4674,
      "porte": 4675,
      "▁alberto": 4676,
      "▁estupi": 4677,
      "tm": 4678,
      "tes.": 4679,
      "▁coño": 4680,
      "uros": 4681,
      "▁leche": 4682,
      "▁ganó": 4683,
      "▁cumplir": 4684,
      "▁actu": 4685,
      "▁¿a": 4686,
      "▁incen": 4687,
      "olos": 4688,
      "▁asis": 4689,
      "▁mentira": 4690,
      "▁podía": 4691,
      "▁administra": 4692,
      "uliantina": 4693,
      "we": 4694,
      "▁visit": 4695,
      "▁sevilla": 4696,
      "▁100%": 4697,
      "▁esco": 4698,
      "▁aur": 4699,
      "ferencia": 4700,
      "▁ass": 4701,
      "ture": 4702,
      "buena": 4703,
      "▁anton": 4704,
      "ológ": 4705,
      "▁difun": 4706,
      "▁junio": 4707,
      "▁60": 4708,
      "▁adul": 4709,
      "▁tapada": 4710,
      "▁fab": 4711,
      "▁lleno": 4712,
      "▁régimen": 4713,
      "eran": 4714,
      "▁desta": 4715,
      "▁honor": 4716,
      "▁29": 4717,
      "▁apoyar": 4718,
      "▁mc": 4719,
      "ela": 4720,
      "▁parque": 4721,
      "ip": 4722,
      "▁confianza": 4723,
      "▁abierta": 4724,
      "▁rea": 4725,
      "▁propio": 4726,
      "dición": 4727,
      "▁relo": 4728,
      "▁tirar": 4729,
      "▁manten": 4730,
      "▁ofen": 4731,
      "▁patria": 4732,
      "cura": 4733,
      "▁alar": 4734,
      "mera": 4735,
      "ded": 4736,
      "▁unfollow": 4737,
      "▁dudas": 4738,
      "ines": 4739,
      "▁dele": 4740,
      "▁ph": 4741,
      "cada": 4742,
      "ards": 4743,
      "cate": 4744,
      "▁angel": 4745,
      "▁ela": 4746,
      "▁cate": 4747,
      "truir": 4748,
      "ose": 4749,
      "▁derro": 4750,
      "xt": 4751,
      "▁dy": 4752,
      "▁finan": 4753,
      "▁director": 4754,
      "▁tab": 4755,
      "▁concierto": 4756,
      "▁tocar": 4757,
      "▁decisión": 4758,
      "▁varias": 4759,
      "▁wow": 4760,
      "▁mal,": 4761,
      "een": 4762,
      "▁bomba": 4763,
      "▁enfr": 4764,
      "jue": 4765,
      "▁inv": 4766,
      "olver": 4767,
      "▁petro": 4768,
      "▁besos": 4769,
      "is,": 4770,
      "▁empren": 4771,
      "▁avi": 4772,
      "▁brea": 4773,
      "ney": 4774,
      "bor": 4775,
      "▁tudo": 4776,
      "▁say": 4777,
      "▁cerrar": 4778,
      "▁muchísimo": 4779,
      "▁lear": 4780,
      "▁cantidad": 4781,
      "▁puer": 4782,
      "▁besando": 4783,
      "▁represent": 4784,
      "ina.": 4785,
      "ismo,": 4786,
      "▁neg": 4787,
      "▁acab": 4788,
      "▁quem": 4789,
      "▁nin": 4790,
      "▁compren": 4791,
      "▁defien": 4792,
      "tres": 4793,
      "▁a.": 4794,
      "▁joh": 4795,
      "▁crack": 4796,
      "▁vender": 4797,
      "▁down": 4798,
      "▁market": 4799,
      "misión": 4800,
      "▁pudi": 4801,
      "▁ángel": 4802,
      "▁cuento": 4803,
      "ísima": 4804,
      "▁cambia": 4805,
      "▁watch": 4806,
      "on,": 4807,
      "▁emocion": 4808,
      "yó": 4809,
      "▁sera": 4810,
      "▁há": 4811,
      "erno": 4812,
      "▁estará": 4813,
      "cien": 4814,
      "enos": 4815,
      "▁pago": 4816,
      "ders": 4817,
      "▁enc": 4818,
      "▁termine": 4819,
      "▁bara": 4820,
      "on.": 4821,
      "▁pie": 4822,
      "▁premio": 4823,
      "▁imagina": 4824,
      "▁pidiendo": 4825,
      "▁tol": 4826,
      "▁rui": 4827,
      "▁ada": 4828,
      "▁precios": 4829,
      "cente": 4830,
      "matic": 4831,
      "▁same": 4832,
      "▁médica": 4833,
      "▁4.": 4834,
      "▁ladr": 4835,
      "▁duro": 4836,
      "▁belle": 4837,
      "zo,": 4838,
      "cy": 4839,
      "▁hdp": 4840,
      "so,": 4841,
      "▁decepcionada": 4842,
      "▁vecinos": 4843,
      "mí": 4844,
      "▁equivo": 4845,
      "▁were": 4846,
      "ditos": 4847,
      "▁titular": 4848,
      "▁queria": 4849,
      "▁ching": 4850,
      "▁yu": 4851,
      "cing": 4852,
      "▁verte": 4853,
      "gular": 4854,
      "▁jorge": 4855,
      "▁retw": 4856,
      "iva": 4857,
      "▁desay": 4858,
      "doba": 4859,
      "▁frustra": 4860,
      "▁existen": 4861,
      "▁alf": 4862,
      "▁abrir": 4863,
      "▁esto,": 4864,
      "▁ojala": 4865,
      "ónica": 4866,
      "▁vuelvo": 4867,
      "▁romper": 4868,
      "▁echar": 4869,
      "▁fron": 4870,
      "▁raro": 4871,
      "bran": 4872,
      "▁nem": 4873,
      "▁actitu": 4874,
      "▁ene": 4875,
      "▁dijeron": 4876,
      "▁altavoz": 4877,
      "▁lon": 4878,
      "se.": 4879,
      "▁progres": 4880,
      "▁dedos": 4881,
      "▁bogo": 4882,
      "▁explicar": 4883,
      "▁reír": 4884,
      "▁omg": 4885,
      "▁gos": 4886,
      "▁festi": 4887,
      "▁perdi": 4888,
      "▁estorn": 4889,
      "▁comentario": 4890,
      "▁fres": 4891,
      "▁ing": 4892,
      "idad,": 4893,
      "▁bote": 4894,
      "inda": 4895,
      "▁negocio": 4896,
      "▁suena": 4897,
      "▁terrible": 4898,
      "▁grave": 4899,
      "capa": 4900,
      "▁riesgo": 4901,
      "mo,": 4902,
      "▁prefiero": 4903,
      "▁detalles": 4904,
      "aso": 4905,
      "▁realiz": 4906,
      "▁hacía": 4907,
      "ls": 4908,
      "▁industri": 4909,
      "▁quando": 4910,
      "▁días,": 4911,
      "mpa": 4912,
      "▁cro": 4913,
      "▁pega": 4914,
      "isco": 4915,
      "▁bille": 4916,
      "▁always": 4917,
      "▁crees": 4918,
      "unda": 4919,
      "▁cancha": 4920,
      "▁responsabilidad": 4921,
      "▁mtvlaf": 4922,
      "▁serán": 4923,
      "▁burl": 4924,
      "▁multi": 4925,
      "▁loo": 4926,
      "▁sua": 4927,
      "▁chico": 4928,
      "▁cero": 4929,
      "▁familias": 4930,
      "▁take": 4931,
      "▁bailar": 4932,
      "▁famos": 4933,
      "▁cerebro": 4934,
      "▁descon": 4935,
      "▁racis": 4936,
      "▁valencia": 4937,
      "ce.": 4938,
      "▁muestra": 4939,
      "ería": 4940,
      "▁pied": 4941,
      "▁glor": 4942,
      "▁ejerci": 4943,
      "▁concep": 4944,
      "▁civil": 4945,
      "▁gestión": 4946,
      "vie": 4947,
      "eco": 4948,
      "test": 4949,
      "▁last": 4950,
      "▁full": 4951,
      "itaria": 4952,
      "uesta": 4953,
      "▁mundo,": 4954,
      "▁sing": 4955,
      "▁oye": 4956,
      "▁estrate": 4957,
      "▁repar": 4958,
      "dina": 4959,
      "▁confirma": 4960,
      "▁conseguir": 4961,
      "▁birth": 4962,
      "▁alum": 4963,
      "bri": 4964,
      "6.": 4965,
      "▁right": 4966,
      "aban": 4967,
      "▁agora": 4968,
      "▁ino": 4969,
      "segu": 4970,
      "▁toque": 4971,
      "▁nen": 4972,
      "▁pura": 4973,
      "amb": 4974,
      "istas,": 4975,
      "▁perfecto": 4976,
      "▁propia": 4977,
      "▁agen": 4978,
      "▁news": 4979,
      "▁cumpli": 4980,
      "▁siesta": 4981,
      "media": 4982,
      "▁jimin": 4983,
      "▁ile": 4984,
      "▁viste": 4985,
      "▁sorpres": 4986,
      "▁tó": 4987,
      "▁bebida": 4988,
      "jaa": 4989,
      "▁champions": 4990,
      "▁mario": 4991,
      "▁joa": 4992,
      "▁dr": 4993,
      "▁dm": 4994,
      "▁encontra": 4995,
      "▁brindando": 4996,
      "udando": 4997,
      "▁espal": 4998,
      "▁mio": 4999,
      "▁deman": 5000,
      "▁médic": 5001,
      "▁bue": 5002,
      "▁reloj": 5003,
      "▁hubo": 5004,
      "dedor": 5005,
      "n't": 5006,
      "od": 5007,
      "▁amor,": 5008,
      "▁reto": 5009,
      "ood": 5010,
      "▁cariño": 5011,
      "▁lou": 5012,
      "orar": 5013,
      "▁propi": 5014,
      "▁bbmas": 5015,
      "itales": 5016,
      "▁sena": 5017,
      "▁humil": 5018,
      "▁abuela": 5019,
      "mic": 5020,
      "tch": 5021,
      "▁agosto": 5022,
      "▁publica": 5023,
      "timos": 5024,
      "tillo": 5025,
      "lia": 5026,
      "ide": 5027,
      "▁esperanza": 5028,
      "▁perdon": 5029,
      "▁funciona": 5030,
      "▁episo": 5031,
      "▁pocos": 5032,
      "▁lamentable": 5033,
      "▁juz": 5034,
      "▁perdido": 5035,
      "ts.": 5036,
      "▁propon": 5037,
      "▁jefe": 5038,
      "▁heart": 5039,
      "▁uruguay": 5040,
      "entos": 5041,
      "useas": 5042,
      "▁objetivo": 5043,
      "quin": 5044,
      "▁llegan": 5045,
      "▁cinco": 5046,
      "▁votos": 5047,
      "kd": 5048,
      "▁calend": 5049,
      "▁google": 5050,
      "▁adi": 5051,
      "bit": 5052,
      "▁símbolos": 5053,
      "▁resop": 5054,
      "▁joda": 5055,
      "▁calla": 5056,
      "▁coche": 5057,
      "tora": 5058,
      "▁comba": 5059,
      "sal": 5060,
      "?\"": 5061,
      "vios": 5062,
      "▁regis": 5063,
      "▁asegu": 5064,
      "▁siempre.": 5065,
      "rue": 5066,
      "▁responder": 5067,
      "▁opción": 5068,
      "▁cuarto": 5069,
      "siones": 5070,
      "▁saque": 5071,
      "▁resoplando": 5072,
      "▁tl": 5073,
      "sor": 5074,
      "▁placer": 5075,
      "iana": 5076,
      "▁tas": 5077,
      "so.": 5078,
      "▁cuidado": 5079,
      "▁parar": 5080,
      "▁verdad,": 5081,
      "jj": 5082,
      "▁desas": 5083,
      "▁frase": 5084,
      "▁esfuerzo": 5085,
      "gentes": 5086,
      "icular": 5087,
      "hab": 5088,
      "▁tarta": 5089,
      "▁energía": 5090,
      "▁gir": 5091,
      "▁rece": 5092,
      "▁náuseas": 5093,
      "is.": 5094,
      "ful": 5095,
      "▁cuida": 5096,
      "▁país,": 5097,
      "en.": 5098,
      "en,": 5099,
      "▁huevos": 5100,
      "▁afu": 5101,
      "cian": 5102,
      "k,": 5103,
      "▁diferentes": 5104,
      "▁pinta": 5105,
      "▁saludando": 5106,
      "▁pegar": 5107,
      "vidades": 5108,
      "▁mediana": 5109,
      "▁medal": 5110,
      "▁going": 5111,
      "9.": 5112,
      "▁eter": 5113,
      "▁embar": 5114,
      "quina": 5115,
      "24": 5116,
      "▁pesos": 5117,
      "vamos": 5118,
      "▁así.": 5119,
      "▁menor": 5120,
      "▁fru": 5121,
      "▁ev": 5122,
      "▁ul": 5123,
      "▁ris": 5124,
      "▁teniendo": 5125,
      "▁madru": 5126,
      "▁rele": 5127,
      "▁cocina": 5128,
      "▁cen": 5129,
      "▁alre": 5130,
      "▁aleman": 5131,
      "▁gala": 5132,
      "▁venezolanos": 5133,
      "▁bolsa": 5134,
      "▁imagino": 5135,
      "▁calendario": 5136,
      "▁obras": 5137,
      "▁realizar": 5138,
      "▁terri": 5139,
      "tagon": 5140,
      "▁70": 5141,
      "▁entiende": 5142,
      "▁had": 5143,
      "▁pudo": 5144,
      "▁resta": 5145,
      "▁gracias.": 5146,
      "▁aniversario": 5147,
      "▁being": 5148,
      "aragua": 5149,
      "▁ejecu": 5150,
      "ifa": 5151,
      "▁minuto": 5152,
      "▁desapar": 5153,
      "▁fol": 5154,
      "▁lee": 5155,
      "▁prima": 5156,
      "▁acciones": 5157,
      "▁trá": 5158,
      "bs": 5159,
      "▁encuentra": 5160,
      "25": 5161,
      "▁pija": 5162,
      "▁\"si": 5163,
      "dremos": 5164,
      "▁alcalde": 5165,
      "▁photo": 5166,
      "▁llevan": 5167,
      "▁hogar": 5168,
      "▁deus": 5169,
      "▁solidar": 5170,
      "▁salvar": 5171,
      "▁gracia": 5172,
      "▁ideas": 5173,
      "▁periodista": 5174,
      "quién": 5175,
      "ço": 5176,
      "▁robar": 5177,
      "pri": 5178,
      "▁viven": 5179,
      "▁encontr": 5180,
      "▁vamo": 5181,
      "ionales": 5182,
      "▁recomenda": 5183,
      "▁thanks": 5184,
      "▁artículo": 5185,
      "tto": 5186,
      "▁emergencia": 5187,
      "▁hones": 5188,
      "▁tomando": 5189,
      "▁impac": 5190,
      "▁comb": 5191,
      "▁teclas": 5192,
      "▁norte": 5193,
      "hahahaha": 5194,
      "▁gasol": 5195,
      "tumb": 5196,
      "viada": 5197,
      "▁tweets": 5198,
      "▁faltan": 5199,
      "▁hable": 5200,
      "▁2017": 5201,
      "▁¡a": 5202,
      "▁explotando": 5203,
      "▁francis": 5204,
      "uma": 5205,
      "lic": 5206,
      "mo.": 5207,
      "▁redon": 5208,
      "▁inclu": 5209,
      "▁preguntas": 5210,
      "ardo": 5211,
      "▁vidas": 5212,
      "▁inici": 5213,
      "ush": 5214,
      "▁consejo": 5215,
      "▁esto.": 5216,
      "era,": 5217,
      "illas": 5218,
      "▁enca": 5219,
      "▁borra": 5220,
      "▁odi": 5221,
      "genes": 5222,
      "tive": 5223,
      "▁si.": 5224,
      "▁tira": 5225,
      "▁semp": 5226,
      "▁part": 5227,
      "▁versión": 5228,
      "▁pso": 5229,
      "▁interesa": 5230,
      "u,": 5231,
      "▁enero": 5232,
      "esa": 5233,
      "viendo": 5234,
      "▁compañeros": 5235,
      "▁obliga": 5236,
      "▁does": 5237,
      "▁cita": 5238,
      "▁(a": 5239,
      "▁desgra": 5240,
      "▁salida": 5241,
      "tú": 5242,
      "quita": 5243,
      "▁pendeja": 5244,
      "▁ciencia": 5245,
      "▁alcohol": 5246,
      "▁provincia": 5247,
      "orado": 5248,
      "▁hy": 5249,
      "▁tenés": 5250,
      "▁years": 5251,
      "▁alegría": 5252,
      "▁baño": 5253,
      "▁plen": 5254,
      "▁supera": 5255,
      "▁micro": 5256,
      "▁noviembre": 5257,
      "▁recursos": 5258,
      "▁muerto": 5259,
      "▁micró": 5260,
      "▁mejorar": 5261,
      "▁sun": 5262,
      "▁tremendo": 5263,
      "▁reme": 5264,
      "▁continu": 5265,
      "▁recupera": 5266,
      "lez": 5267,
      "▁give": 5268,
      "▁cc": 5269,
      "iler": 5270,
      "▁completo": 5271,
      "▁compe": 5272,
      "▁chiste": 5273,
      "▁excl": 5274,
      "mano": 5275,
      "▁influ": 5276,
      "p,": 5277,
      "*.": 5278,
      "▁necesitan": 5279,
      "▁porq": 5280,
      "▁detrás": 5281,
      "▁oi": 5282,
      "▁alex": 5283,
      "▁parecer": 5284,
      "minar": 5285,
      "jajajajajajajaja": 5286,
      "▁maf": 5287,
      "▁personaje": 5288,
      "▁acompaña": 5289,
      "▁night": 5290,
      "hay": 5291,
      "icul": 5292,
      "▁zo": 5293,
      "▁memoria": 5294,
      "▁página": 5295,
      "▁investiga": 5296,
      "▁sem": 5297,
      "quilla": 5298,
      "▁mostrando": 5299,
      "▁verlo": 5300,
      "▁primeros": 5301,
      "cán": 5302,
      "los.": 5303,
      "▁joy": 5304,
      "▁lic": 5305,
      "▁ánimo": 5306,
      "▁andalu": 5307,
      "▁bebe": 5308,
      "▁reunión": 5309,
      "▁caí": 5310,
      "▁dre": 5311,
      "▁well": 5312,
      "▁crear": 5313,
      "▁perros": 5314,
      "urs": 5315,
      "ical": 5316,
      "▁ges": 5317,
      "le.": 5318,
      "▁rio": 5319,
      "ak": 5320,
      "▁ingl": 5321,
      "▁fren": 5322,
      "▁inno": 5323,
      "▁ciudadan": 5324,
      "▁taller": 5325,
      "▁es,": 5326,
      "ign": 5327,
      "▁claro,": 5328,
      "▁km": 5329,
      "▁quieras": 5330,
      "▁tendría": 5331,
      "▁selector": 5332,
      "▁preciosa": 5333,
      "grafía": 5334,
      "▁femen": 5335,
      "▁chicas": 5336,
      "eas": 5337,
      "rlo": 5338,
      "▁htt": 5339,
      "▁humanos": 5340,
      "▁should": 5341,
      "▁gracias,": 5342,
      "▁escol": 5343,
      "fans": 5344,
      "tus": 5345,
      "lé": 5346,
      "p:/": 5347,
      "▁could": 5348,
      "elli": 5349,
      "▁grupos": 5350,
      "▁ao": 5351,
      "▁común": 5352,
      "▁negra": 5353,
      "▁cré": 5354,
      "gido": 5355,
      "▁pregunto": 5356,
      "▁coin": 5357,
      "▁rafa": 5358,
      "los,": 5359,
      "▁curio": 5360,
      "ba,": 5361,
      "▁cs": 5362,
      "▁uribe": 5363,
      "vier": 5364,
      "▁distri": 5365,
      "▁grá": 5366,
      "▁run": 5367,
      "▁vul": 5368,
      "▁comunicación": 5369,
      "▁cárcel": 5370,
      "ráqueo": 5371,
      "c,": 5372,
      "▁ic": 5373,
      "dade": 5374,
      "▁celebrar": 5375,
      "▁tecnología": 5376,
      "iti": 5377,
      "▁;)": 5378,
      "back": 5379,
      "▁mina": 5380,
      "horabuena": 5381,
      "▁reina": 5382,
      "ind": 5383,
      "▁hé": 5384,
      "▁learn": 5385,
      "▁yes": 5386,
      "▁imá": 5387,
      "jado": 5388,
      "jero": 5389,
      "rita": 5390,
      "▁imper": 5391,
      "ire": 5392,
      "▁debo": 5393,
      "▁médico": 5394,
      "drá": 5395,
      "▁periodistas": 5396,
      "22": 5397,
      "▁sempre": 5398,
      "▁éste": 5399,
      "▁hac": 5400,
      "▁cán": 5401,
      "▁shit": 5402,
      "▁hagas": 5403,
      "▁películas": 5404,
      "▁flores": 5405,
      "álisis": 5406,
      "▁veh": 5407,
      "▁intentar": 5408,
      "▁micrófono": 5409,
      "▁ingen": 5410,
      "▁hoje": 5411,
      "▁peru": 5412,
      "ncia": 5413,
      "meric": 5414,
      "▁pm": 5415,
      "▁most": 5416,
      "leta": 5417,
      "▁aliviada": 5418,
      "▁harry": 5419,
      "▁estornudando": 5420,
      "ww": 5421,
      "▁limi": 5422,
      "▁chic": 5423,
      "▁cabel": 5424,
      "▁carne": 5425,
      "le,": 5426,
      "▁estú": 5427,
      "▁prefer": 5428,
      "mas,": 5429,
      "▁gente,": 5430,
      "uta": 5431,
      "tida": 5432,
      "▁jungkook": 5433,
      "▁quizás": 5434,
      "▁virtual": 5435,
      "▁gobern": 5436,
      "▁vuelva": 5437,
      "▁vues": 5438,
      "▁help": 5439,
      "▁ofic": 5440,
      "▁quedate": 5441,
      "tería": 5442,
      "▁chav": 5443,
      "▁complica": 5444,
      "▁porqué": 5445,
      "▁aud": 5446,
      "ges": 5447,
      "dor,": 5448,
      "▁automatic": 5449,
      "▁div": 5450,
      "▁marketing": 5451,
      "▁estilo": 5452,
      "▁mentiras": 5453,
      "▁tratar": 5454,
      "▁trib": 5455,
      "▁pode": 5456,
      "▁cór": 5457,
      "dent": 5458,
      "▁ascen": 5459,
      "▁febrero": 5460,
      "▁nega": 5461,
      "▁¿que": 5462,
      "▁acon": 5463,
      "▁realiza": 5464,
      "▁hoy.": 5465,
      "dientes": 5466,
      "anas": 5467,
      "eratura": 5468,
      "▁reli": 5469,
      "▁suma": 5470,
      "▁terráqueo": 5471,
      "▁http:/": 5472,
      "▁inglés": 5473,
      "▁diego": 5474,
      "▁got7": 5475,
      "se,": 5476,
      "▁facul": 5477,
      "▁¡no": 5478,
      "dor.": 5479,
      "▁tiempo.": 5480,
      "▁series": 5481,
      "▁llamado": 5482,
      "▁(?)": 5483,
      "▁reflex": 5484,
      "▁tendrá": 5485,
      "%.": 5486,
      "▁pude": 5487,
      "▁birthday": 5488,
      "▁these": 5489,
      "▁kee": 5490,
      "▁checked": 5491,
      "ctores": 5492,
      "▁hacerme": 5493,
      "tividad": 5494,
      ".0": 5495,
      "▁acto": 5496,
      "▁económica": 5497,
      "▁capacidad": 5498,
      "▁capit": 5499,
      "▁torneo": 5500,
      "▁empeza": 5501,
      "▁cdmx": 5502,
      "cter": 5503,
      "▁automatically": 5504,
      "mmer": 5505,
      "▁elegir": 5506,
      "▁favorito": 5507,
      "ble,": 5508,
      "▁emi": 5509,
      "gol": 5510,
      "era.": 5511,
      "▁resulta": 5512,
      "queros": 5513,
      "▁work": 5514,
      "▁teatro": 5515,
      "▁great": 5516,
      "▁interés": 5517,
      "▁deporte": 5518,
      "▁event": 5519,
      "▁lá": 5520,
      "▁barça": 5521,
      "▁31": 5522,
      "▁todos,": 5523,
      "▁diá": 5524,
      "▁edición": 5525,
      "▁acción": 5526,
      "estas": 5527,
      "--": 5528,
      "▁mal.": 5529,
      "▁fortale": 5530,
      "▁clave": 5531,
      "rs": 5532,
      "▁premi": 5533,
      "▁francia": 5534,
      "deos": 5535,
      "▁cantar": 5536,
      "▁favor,": 5537,
      "▁end": 5538,
      "▁montón": 5539,
      "tional": 5540,
      "▁malas": 5541,
      "▁tío": 5542,
      "tique": 5543,
      "▁open": 5544,
      "▁mirando": 5545,
      "▁noso": 5546,
      "tario": 5547,
      "▁1,": 5548,
      "▁tarje": 5549,
      "self": 5550,
      "▁tiempo,": 5551,
      "▁bronca": 5552,
      "▁roja": 5553,
      "▁lopez": 5554,
      "▁coca": 5555,
      "▁caden": 5556,
      "▁gotas": 5557,
      "land": 5558,
      "ce,": 5559,
      "▁\"me": 5560,
      "▁ocas": 5561,
      "▁queres": 5562,
      "▁ub": 5563,
      "▁also": 5564,
      "▁fazer": 5565,
      "▁entren": 5566,
      "▁aparece": 5567,
      "▁vá": 5568,
      "▁better": 5569,
      "▁protección": 5570,
      "▁dedica": 5571,
      "▁piden": 5572,
      "▁vice": 5573,
      "▁definitivamente": 5574,
      "▁comienza": 5575,
      "▁león": 5576,
      "sh": 5577,
      "▁acco": 5578,
      "▁carre": 5579,
      "▁levantar": 5580,
      "▁hiciste": 5581,
      "▁río": 5582,
      "▁env": 5583,
      "▁italia": 5584,
      "dere": 5585,
      "▁interior": 5586,
      "▁ambos": 5587,
      "▁refu": 5588,
      "ica,": 5589,
      "▁lanza": 5590,
      "▁arru": 5591,
      "▁evento": 5592,
      "▁rober": 5593,
      "▁clima": 5594,
      "▁modelo": 5595,
      "ba.": 5596,
      "ah": 5597,
      "▁vel": 5598,
      "▁ahhh": 5599,
      "teando": 5600,
      "mula": 5601,
      "▁pelotudo": 5602,
      "▁puedan": 5603,
      "▁convoca": 5604,
      "▁pros": 5605,
      "▁isla": 5606,
      "▁pio": 5607,
      "▁piso": 5608,
      "▁época": 5609,
      "▁cont": 5610,
      "▁humano": 5611,
      "▁fase": 5612,
      "▁festival": 5613,
      "itor": 5614,
      "▁importantes": 5615,
      "▁oposición": 5616,
      "▁bang": 5617,
      "▁coun": 5618,
      "▁bolivia": 5619,
      "▁judi": 5620,
      "▁global": 5621,
      "▁followed": 5622,
      "▁estuve": 5623,
      "▁verdadero": 5624,
      "han": 5625,
      "inar": 5626,
      "▁david": 5627,
      "▁mensajes": 5628,
      "▁aparte": 5629,
      "▁ti,": 5630,
      "▁escucho": 5631,
      "rida": 5632,
      "▁god": 5633,
      "▁mismo.": 5634,
      "▁¿quién": 5635,
      "▁vosotros": 5636,
      "▁correspon": 5637,
      "▁ocul": 5638,
      "▁call": 5639,
      "▁toy": 5640,
      "8.": 5641,
      "99": 5642,
      "▁miren": 5643,
      "▁informe": 5644,
      "▁empleo": 5645,
      "▁siempre,": 5646,
      "▁desgracia": 5647,
      "▁audio": 5648,
      "of": 5649,
      "▁especta": 5650,
      "▁capítulo": 5651,
      "▁canta": 5652,
      "▁parla": 5653,
      "g.": 5654,
      "dela": 5655,
      "▁fascis": 5656,
      "▁aut": 5657,
      "lón": 5658,
      "▁other": 5659,
      "er,": 5660,
      "▁muere": 5661,
      "▁meta": 5662,
      "▁impresion": 5663,
      "quero": 5664,
      "▁usuario": 5665,
      "▁cuánto": 5666,
      "▁población": 5667,
      "▁daniel": 5668,
      "▁sopor": 5669,
      "▁discu": 5670,
      "gy": 5671,
      "▁cach": 5672,
      "lec": 5673,
      "▁aplica": 5674,
      "guez": 5675,
      "▁santo": 5676,
      "▁artis": 5677,
      "▁independiente": 5678,
      "▁presentación": 5679,
      "▁(y": 5680,
      "igu": 5681,
      "▁municipal": 5682,
      "▁impuestos": 5683,
      "tán": 5684,
      "dero": 5685,
      "▁condiciones": 5686,
      "▁acci": 5687,
      "▁kil": 5688,
      "▁\"de": 5689,
      "▁salgo": 5690,
      "▁tuyo": 5691,
      "▁camiseta": 5692,
      "▁tik": 5693,
      "▁afir": 5694,
      "▁mtvlapare": 5695,
      "▁empezó": 5696,
      "fan": 5697,
      "▁kid": 5698,
      "▁impul": 5699,
      "▁particip": 5700,
      "▁vengan": 5701,
      "rán": 5702,
      "▁carta": 5703,
      "gin": 5704,
      "▁días.": 5705,
      "didos": 5706,
      "▁conce": 5707,
      "▁vota": 5708,
      "rí": 5709,
      "▁500": 5710,
      "▁debes": 5711,
      "er.": 5712,
      "▁saco": 5713,
      "nes": 5714,
      "▁actividades": 5715,
      "bos": 5716,
      "▁felicitaciones": 5717,
      "fin": 5718,
      "▁garcía": 5719,
      "vic": 5720,
      "▁rí": 5721,
      "▁ambiente": 5722,
      "▁cuantos": 5723,
      "▁obser": 5724,
      "▁antonio": 5725,
      "▁visual": 5726,
      "▁digas": 5727,
      "▁made": 5728,
      "ns": 5729,
      "▁aban": 5730,
      "▁vícti": 5731,
      "▁said": 5732,
      "▁estén": 5733,
      "cun": 5734,
      "▁hit": 5735,
      "▁volun": 5736,
      "▁compromiso": 5737,
      "▁irme": 5738,
      "▁perman": 5739,
      "▁justif": 5740,
      "aram": 5741,
      "ando.": 5742,
      "▁literalmente": 5743,
      "ñan": 5744,
      "▁injus": 5745,
      "▁valen": 5746,
      "▁sexo": 5747,
      "ple": 5748,
      "▁reno": 5749,
      "▁positivo": 5750,
      "▁merca": 5751,
      "▁boo": 5752,
      "▁comiendo": 5753,
      "tti": 5754,
      "▁mostra": 5755,
      "oos": 5756,
      "▁manuel": 5757,
      "▁pierde": 5758,
      "▁vean": 5759,
      "▁garanti": 5760,
      "▁hincha": 5761,
      "▁gay": 5762,
      "▁enorme": 5763,
      "▁bill": 5764,
      "60": 5765,
      "éctr": 5766,
      "▁sinc": 5767,
      "▁wait": 5768,
      "▁hipo": 5769,
      "▁olvid": 5770,
      "▁respecto": 5771,
      "▁llegado": 5772,
      "▁reforma": 5773,
      "bin": 5774,
      "pl": 5775,
      "ica.": 5776,
      "▁diputados": 5777,
      "udia": 5778,
      "é,": 5779,
      "fort": 5780,
      "▁atre": 5781,
      "▁latino": 5782,
      "▁preguntar": 5783,
      "▁etc.": 5784,
      "▁nose": 5785,
      "▁league": 5786,
      "▁qual": 5787,
      "ándome": 5788,
      "▁beau": 5789,
      "▁apo": 5790,
      "nal": 5791,
      "▁vengo": 5792,
      "▁jesús": 5793,
      "▁región": 5794,
      "gios": 5795,
      "▁altura": 5796,
      "▁piensan": 5797,
      "▁ahora,": 5798,
      "▁moment": 5799,
      "▁cientí": 5800,
      "ever": 5801,
      "▁molesta": 5802,
      "▁principal": 5803,
      "ing.": 5804,
      "▁hp": 5805,
      "▁ello": 5806,
      "▁cali": 5807,
      "▁peso": 5808,
      "▁interven": 5809,
      "▁acerca": 5810,
      "▁pela": 5811,
      "▁habría": 5812,
      "centes": 5813,
      "les.": 5814,
      "▁decirle": 5815,
      "▁mx": 5816,
      "▁actividad": 5817,
      "▁martin": 5818,
      "▁cant": 5819,
      "▁alv": 5820,
      "les,": 5821,
      "▁leí": 5822,
      "▁hablamos": 5823,
      "▁viajar": 5824,
      "▁hotel": 5825,
      "▁nicol": 5826,
      "icamente": 5827,
      "▁quitar": 5828,
      "▁ti.": 5829,
      "▁mayores": 5830,
      "ect": 5831,
      "▁dictadura": 5832,
      "▁rue": 5833,
      "▁cocin": 5834,
      "▁logra": 5835,
      "▁very": 5836,
      "▁extran": 5837,
      "▁perió": 5838,
      "▁favorita": 5839,
      "▁auricular": 5840,
      "▁anuncia": 5841,
      "▁juvent": 5842,
      "▁gy": 5843,
      "▁friends": 5844,
      "▁ataque": 5845,
      "▁pizza": 5846,
      "▁coj": 5847,
      "▁wil": 5848,
      "eria": 5849,
      "▁gustó": 5850,
      "mas.": 5851,
      "▁high": 5852,
      "todos": 5853,
      "▁impun": 5854,
      "▁culp": 5855,
      "▁millon": 5856,
      "▁belleza": 5857,
      "tita": 5858,
      "▁ilus": 5859,
      "▁hun": 5860,
      "ór": 5861,
      "▁campeona": 5862,
      "▁examen": 5863,
      "▁confun": 5864,
      "tadores": 5865,
      "▁cambios": 5866,
      "▁ace": 5867,
      "▁fc": 5868,
      "ándole": 5869,
      "▁jaj": 5870,
      "▁imágenes": 5871,
      "▁jajajaj": 5872,
      "▁agus": 5873,
      "mático": 5874,
      "▁horario": 5875,
      "yos": 5876,
      "▁arcoír": 5877,
      "ando,": 5878,
      "crá": 5879,
      "meros": 5880,
      "▁mejor.": 5881,
      "▁cif": 5882,
      "▁motivo": 5883,
      "▁profe": 5884,
      "▁discurso": 5885,
      "▁excep": 5886,
      "▁ponga": 5887,
      "▁movimiento": 5888,
      "▁sube": 5889,
      "▁ahorita": 5890,
      "▁encer": 5891,
      "▁olvida": 5892,
      "▁desastre": 5893,
      "▁chal": 5894,
      "▁asocia": 5895,
      "▁abierto": 5896,
      "▁presentar": 5897,
      "▁peron": 5898,
      "▁\"en": 5899,
      "▁fea": 5900,
      "▁tercera": 5901,
      "▁vera": 5902,
      "▁panamá": 5903,
      "▁vende": 5904,
      "sin": 5905,
      "▁cata": 5906,
      "▁recibiendo": 5907,
      "rique": 5908,
      "ueva": 5909,
      "▁abue": 5910,
      "▁une": 5911,
      "▁sí.": 5912,
      "▁coor": 5913,
      "▁arcoíris": 5914,
      "▁mila": 5915,
      "▁sois": 5916,
      "▁dios,": 5917,
      "jajaja": 5918,
      "▁culia": 5919,
      "bur": 5920,
      "▁asun": 5921,
      "▁miemb": 5922,
      "▁aero": 5923,
      "▁little": 5924,
      "▁protagon": 5925,
      "estar": 5926,
      "▁medalla": 5927,
      "dimiento": 5928,
      "▁considera": 5929,
      "tec": 5930,
      "anto": 5931,
      "▁colon": 5932,
      "▁guste": 5933,
      "▁profesor": 5934,
      "▁entera": 5935,
      "▁sis": 5936,
      "minación": 5937,
      "▁original": 5938,
      "▁dona": 5939,
      "▁solución": 5940,
      "kaka": 5941,
      "▁estable": 5942,
      "ducción": 5943,
      "udas": 5944,
      "▁cáncer": 5945,
      "▁gobernador": 5946,
      "▁isa": 5947,
      "▁familiar": 5948,
      "▁id": 5949,
      "ane": 5950,
      "▁bogotá": 5951,
      "▁oc": 5952,
      "▁5.": 5953,
      "▁mostrar": 5954,
      "▁investigación": 5955,
      "▁máximo": 5956,
      "▁chocolate": 5957,
      "jeros": 5958,
      "▁verdad.": 5959,
      "l.": 5960,
      "▁voltaje": 5961,
      "▁fake": 5962,
      "▁animales": 5963,
      "▁volvió": 5964,
      "▁acostumb": 5965,
      "▁thre": 5966,
      "▁posta": 5967,
      "▁asu": 5968,
      "▁cristina": 5969,
      "gala": 5970,
      "▁mez": 5971,
      "pel": 5972,
      "▁inau": 5973,
      "▁estima": 5974,
      "▁agres": 5975,
      "▁bendi": 5976,
      "ork": 5977,
      "cula": 5978,
      "▁asamb": 5979,
      "▁alej": 5980,
      "▁م": 5981,
      "▁marco": 5982,
      "▁mons": 5983,
      "▁\"los": 5984,
      "▁responsable": 5985,
      "▁absolutamente": 5986,
      "▁anterior": 5987,
      "▁unión": 5988,
      "▁where": 5989,
      "istas.": 5990,
      "▁ola": 5991,
      "▁jer": 5992,
      "&lt;": 5993,
      "colo": 5994,
      "▁jal": 5995,
      "cciones": 5996,
      "▁concent": 5997,
      "ime": 5998,
      "▁hablas": 5999,
      "▁neutral": 6000,
      "▁diría": 6001,
      "▁integ": 6002,
      "▁song": 6003,
      "▁eléctr": 6004,
      "▁sorry": 6005,
      "▁análisis": 6006,
      "quia": 6007,
      "▁nao": 6008,
      "23": 6009,
      "▁psoe": 6010,
      "▁yoon": 6011,
      "▁productos": 6012,
      "eso": 6013,
      "▁fandom": 6014,
      "▁mates": 6015,
      "▁autoridades": 6016,
      "▁amigos,": 6017,
      "▁querés": 6018,
      "▁feria": 6019,
      "ito,": 6020,
      "▁tarea": 6021,
      "ged": 6022,
      "▁gustado": 6023,
      "▁ninguno": 6024,
      "teca": 6025,
      "jsj": 6026,
      "▁revis": 6027,
      "hoy": 6028,
      "▁princes": 6029,
      "▁sober": 6030,
      "▁dema": 6031,
      "▁importancia": 6032,
      "▁city": 6033,
      "▁completa": 6034,
      "▁mierda.": 6035,
      "\":": 6036,
      "▁unidad": 6037,
      "▁termino": 6038,
      "b.": 6039,
      "▁rombo": 6040,
      "▁sorteo": 6041,
      "▁elig": 6042,
      "cón": 6043,
      "▁cantando": 6044,
      "▁córdoba": 6045,
      "▁moto": 6046,
      "▁tardes": 6047,
      "\"...": 6048,
      "▁nicaragua": 6049,
      "▁disfruta": 6050,
      "▁¡fel": 6051,
      "jin": 6052,
      "▁género": 6053,
      "▁afuera": 6054,
      "▁carga": 6055,
      "▁médicos": 6056,
      "▁murió": 6057,
      "▁apun": 6058,
      "▁spotif": 6059,
      "▁presión": 6060,
      "▁francisco": 6061,
      "▁agradecer": 6062,
      "zo.": 6063,
      "▁jejeje": 6064,
      "▁emple": 6065,
      "▁hará": 6066,
      "▁pierdas": 6067,
      "▁cago": 6068,
      "▁fort": 6069,
      "▁hope": 6070,
      "ts,": 6071,
      "▁quero": 6072,
      "▁misera": 6073,
      "tali": 6074,
      "▁trae": 6075,
      "kan": 6076,
      "▁compara": 6077,
      "▁mismo,": 6078,
      "ante.": 6079,
      "▁comisión": 6080,
      "etas": 6081,
      "▁consider": 6082,
      "▁dirección": 6083,
      "▁tercer": 6084,
      "▁descono": 6085,
      "▁\"n": 6086,
      "▁cuestion": 6087,
      "▁poca": 6088,
      "▁saludo": 6089,
      "▁lava": 6090,
      "▁consulta": 6091,
      "▁lugares": 6092,
      "▁sobr": 6093,
      "tieron": 6094,
      "▁pibe": 6095,
      "▁iglesia": 6096,
      "▁oscar": 6097,
      "▁desapare": 6098,
      "▁poniendo": 6099,
      "▁mucho,": 6100,
      "row": 6101,
      "▁wtf": 6102,
      "▁empa": 6103,
      "▁cancel": 6104,
      "▁depende": 6105,
      "nd": 6106,
      "andro": 6107,
      "▁extrañar": 6108,
      "▁trabajos": 6109,
      "▁¿te": 6110,
      "▁の": 6111,
      "▁peña": 6112,
      "antil": 6113,
      "mestre": 6114,
      "▁valent": 6115,
      "har": 6116,
      "▁maestro": 6117,
      "▁exclusi": 6118,
      "▁madres": 6119,
      "▁sim": 6120,
      "let": 6121,
      "▁perten": 6122,
      "80": 6123,
      "ller": 6124,
      "▁proyectos": 6125,
      "▁awards": 6126,
      "▁inso": 6127,
      "▁quieran": 6128,
      "▁valle": 6129,
      "?,": 6130,
      "bón": 6131,
      "].": 6132,
      "▁:d": 6133,
      "▁quita": 6134,
      "▁cobrar": 6135,
      "tiful": 6136,
      "▁salvador": 6137,
      "▁tré": 6138,
      "▁cop": 6139,
      "▁dyna": 6140,
      "▁embara": 6141,
      "&amp;": 6142,
      "▁plena": 6143,
      "ipe": 6144,
      "▁!.": 6145,
      "puta": 6146,
      "/10": 6147,
      "joy": 6148,
      "▁apoya": 6149,
      "▁resis": 6150,
      "▁2021": 6151,
      "▁desin": 6152,
      "▁ya.": 6153,
      "▁aborto": 6154,
      "▁semi": 6155,
      ",000": 6156,
      "▁ocupa": 6157,
      "**": 6158,
      "▁perdió": 6159,
      "▁renun": 6160,
      "ux": 6161,
      "▁fuerzas": 6162,
      "▁tod": 6163,
      "▁mareo": 6164,
      "▁niñas": 6165,
      "▁ministerio": 6166,
      "vile": 6167,
      "▁keep": 6168,
      "▁35": 6169,
      "▁infin": 6170,
      "▁correr": 6171,
      "▁mini": 6172,
      "▁candidato": 6173,
      "▁dejado": 6174,
      "▁rit": 6175,
      "gus": 6176,
      "▁cierto,": 6177,
      "▁chupa": 6178,
      "▁bom": 6179,
      "▁portu": 6180,
      "▁dólares": 6181,
      "▁trébol": 6182,
      "▁maria": 6183,
      "ats": 6184,
      "▁bibl": 6185,
      "▁deix": 6186,
      "▁vacuna": 6187,
      "▁repetir": 6188,
      "▁mv": 6189,
      "▁then": 6190,
      "▁aquellos": 6191,
      "▁loc": 6192,
      "▁redonda": 6193,
      "▁guardia": 6194,
      "vaila": 6195,
      "▁dedic": 6196,
      "▁merecen": 6197,
      "fic": 6198,
      "responsab": 6199,
      "▁next": 6200,
      "pal": 6201,
      "▁mesmo": 6202,
      "▁infec": 6203,
      "phone": 6204,
      "idas": 6205,
      "&gt;&gt;&gt;&gt;": 6206,
      "▁ejercicio": 6207,
      "▁america": 6208,
      "▁sei": 6209,
      "uuu": 6210,
      "▁superar": 6211,
      "▁frustración": 6212,
      "▁responde": 6213,
      "wu": 6214,
      "▁ye": 6215,
      "▁permitir": 6216,
      "▁depar": 6217,
      "▁cruzados": 6218,
      "▁declar": 6219,
      "gá": 6220,
      "ente,": 6221,
      "cie": 6222,
      "gón": 6223,
      "▁party": 6224,
      "▁magn": 6225,
      "óme": 6226,
      "▁sensi": 6227,
      "vidu": 6228,
      "melo": 6229,
      "▁fernández": 6230,
      "▁dame": 6231,
      "▁histór": 6232,
      "▁espec": 6233,
      "▁¿sab": 6234,
      "▁lloro": 6235,
      "▁fernando": 6236,
      "▁monta": 6237,
      "enti": 6238,
      "▁sepa": 6239,
      "▁duque": 6240,
      "▁carro": 6241,
      "▁aven": 6242,
      "guém": 6243,
      "▁fuiste": 6244,
      "▁md": 6245,
      "▁p.": 6246,
      "▁inú": 6247,
      "▁casas": 6248,
      "▁habit": 6249,
      "▁precisa": 6250,
      "▁estrategia": 6251,
      "▁innova": 6252,
      "ficio": 6253,
      "▁talento": 6254,
      "▁entradas": 6255,
      "▁cub": 6256,
      "aas": 6257,
      "▁abre": 6258,
      "▁dignidad": 6259,
      "▁práctica": 6260,
      "▁ans": 6261,
      "▁solamente": 6262,
      "▁pc": 6263,
      "▁coger": 6264,
      "▁transporte": 6265,
      "▁fucking": 6266,
      "tz": 6267,
      "▁louis": 6268,
      "▁visitar": 6269,
      "é.": 6270,
      "iii": 6271,
      "jera": 6272,
      "▁ficha": 6273,
      "▁y,": 6274,
      "▁haha": 6275,
      "▁maldita": 6276,
      "▁mierda,": 6277,
      "▁enhorabuena": 6278,
      "▁dí": 6279,
      "▁rodr": 6280,
      "▁confusión": 6281,
      "riendo": 6282,
      "▁\"se": 6283,
      "▁pensaba": 6284,
      "▁tom": 6285,
      "enario": 6286,
      "▁dulce": 6287,
      "▁producción": 6288,
      "▁cultural": 6289,
      "▁acordar": 6290,
      "▁(o": 6291,
      "dá": 6292,
      "▁cosas,": 6293,
      "▁2016": 6294,
      "▁principio": 6295,
      "▁tell": 6296,
      "▁llo": 6297,
      "bus": 6298,
      "▁hier": 6299,
      "▁leyendo": 6300,
      "ente.": 6301,
      "tión": 6302,
      "oli": 6303,
      "▁española": 6304,
      "▁título": 6305,
      "logía": 6306,
      "▁categor": 6307,
      "▁jur": 6308,
      "▁anima": 6309,
      "▁traer": 6310,
      "▁doctor": 6311,
      "▁mucho.": 6312,
      "▁contacto": 6313,
      "▁aco": 6314,
      "iciones": 6315,
      "...\"": 6316,
      "▁despertar": 6317,
      "sed": 6318,
      "rle": 6319,
      "gt": 6320,
      "▁llaman": 6321,
      "▁aceptar": 6322,
      "vailable": 6323,
      "▁esque": 6324,
      "▁gente.": 6325,
      "ó,": 6326,
      "▁ainda": 6327,
      "▁yo.": 6328,
      "▁assi": 6329,
      "ística": 6330,
      "mada": 6331,
      "▁account": 6332,
      "▁juicio": 6333,
      "▁chris": 6334,
      "▁siglo": 6335,
      "▁ear": 6336,
      "▁hot": 6337,
      "rer": 6338,
      "▁c.": 6339,
      "▁pongan": 6340,
      "▁cone": 6341,
      "▁privile": 6342,
      "▁jard": 6343,
      "yn": 6344,
      "▁pocas": 6345,
      "▁pedazo": 6346,
      "anda": 6347,
      "▁aband": 6348,
      "▁aguante": 6349,
      "seguridad": 6350,
      "ons": 6351,
      "▁volumen": 6352,
      "▁conciencia": 6353,
      "▁ruta": 6354,
      "inha": 6355,
      "▁electoral": 6356,
      "▁corruptos": 6357,
      "▁continú": 6358,
      "▁hs": 6359,
      "▁aro": 6360,
      "▁decre": 6361,
      "liza": 6362,
      "▁ego": 6363,
      "▁caracas": 6364,
      "▁balonces": 6365,
      "▁beautiful": 6366,
      "▁enfermedad": 6367,
      "▁constitución": 6368,
      "▁yendo": 6369,
      "▁ame": 6370,
      "▁ganado": 6371,
      "▁municipio": 6372,
      "▁amooo": 6373,
      "▁quédate": 6374,
      "▁master": 6375,
      "▁diz": 6376,
      "▁bem": 6377,
      "▁criminal": 6378,
      "▁pies": 6379,
      "▁stay": 6380,
      "▁homena": 6381,
      "▁cana": 6382,
      "▁probable": 6383,
      "▁motiva": 6384,
      "100": 6385,
      "▁pequeña": 6386,
      "▁rata": 6387,
      "▁cerezo": 6388,
      "▁power": 6389,
      "▁mega": 6390,
      "▁euros": 6391,
      "▁bit": 6392,
      "▁alerta": 6393,
      "▁mi,": 6394,
      "▁até": 6395,
      "▁leon": 6396,
      "▁uds": 6397,
      "▁tenho": 6398,
      "▁turismo": 6399,
      "▁bun": 6400,
      "cs": 6401,
      "▁echa": 6402,
      "cru": 6403,
      "hos": 6404,
      "lie": 6405,
      "▁yan": 6406,
      "▁separa": 6407,
      "▁corto": 6408,
      "ibles": 6409,
      "▁dal": 6410,
      "▁necesitas": 6411,
      "▁ultima": 6412,
      "uro": 6413,
      "▁trabajo,": 6414,
      "▁45": 6415,
      "▁pref": 6416,
      "▁ms": 6417,
      "▁lastima": 6418,
      "▁individu": 6419,
      "▁periódico": 6420,
      "▁adelan": 6421,
      "tillas": 6422,
      "▁pleno": 6423,
      "▁cobar": 6424,
      "▁facultad": 6425,
      "▁cabello": 6426,
      "▁clo": 6427,
      "▁jaja,": 6428,
      "eres": 6429,
      "▁aires": 6430,
      "▁abandon": 6431,
      "▁hern": 6432,
      "▁demasia": 6433,
      "▁renuncia": 6434,
      "▁psic": 6435,
      "▁invito": 6436,
      "▁tristeza": 6437,
      "▁planeta": 6438,
      "▁merec": 6439,
      "▁calavera": 6440,
      "▁maldito": 6441,
      "▁sabado": 6442,
      "▁nosotras": 6443,
      "ari": 6444,
      "▁segundos": 6445,
      "▁dejaron": 6446,
      "▁abri": 6447,
      "▁puebla": 6448,
      "▁profun": 6449,
      "▁morena": 6450,
      "▁hermanos": 6451,
      "▁políticas": 6452,
      "▁tuya": 6453,
      "▁nes": 6454,
      "▁planes": 6455,
      "▁cuel": 6456,
      "▁amigo,": 6457,
      "▁paciencia": 6458,
      "duras": 6459,
      "▁transforma": 6460,
      "▁irre": 6461,
      "▁aquel": 6462,
      "▁u.": 6463,
      "▁profesionales": 6464,
      "▁material": 6465,
      "▁víctimas": 6466,
      "▁depres": 6467,
      "▁hoja": 6468,
      "menes": 6469,
      "▁fiel": 6470,
      "▁ore": 6471,
      "▁hubiese": 6472,
      "▁agenda": 6473,
      "▁acabe": 6474,
      "▁moda": 6475,
      "▁pantal": 6476,
      "▁cierre": 6477,
      "▁prohibido": 6478,
      "pida": 6479,
      "▁sueldo": 6480,
      "▁viviendo": 6481,
      "▁pesa": 6482,
      "▁....": 6483,
      "▁nomás": 6484,
      "▁:'": 6485,
      "▁llora": 6486,
      "▁mues": 6487,
      "▁también.": 6488,
      "▁reproducir": 6489,
      "jajaj": 6490,
      "▁teor": 6491,
      "▁pelota": 6492,
      "▁actitud": 6493,
      "torial": 6494,
      "▁cie": 6495,
      "▁indica": 6496,
      "▁funcionarios": 6497,
      "mpl": 6498,
      "▁mere": 6499,
      "'.": 6500,
      "ezco": 6501,
      "▁emil": 6502,
      "kin": 6503,
      "▁helado": 6504,
      "/2": 6505,
      "vemos": 6506,
      "▁rap": 6507,
      "▁regreso": 6508,
      "▁pasión": 6509,
      "▁hola,": 6510,
      "▁proteger": 6511,
      "▁etapa": 6512,
      "▁prac": 6513,
      "ado,": 6514,
      "▁medida": 6515,
      "▁jap": 6516,
      "▁jarras": 6517,
      "▁escribe": 6518,
      "▁clásico": 6519,
      "ken": 6520,
      "dores,": 6521,
      "▁contenido": 6522,
      "▁acaso": 6523,
      "▁melhor": 6524,
      "lina": 6525,
      "▁caja": 6526,
      "▁hayan": 6527,
      "lados": 6528,
      "▁sesión": 6529,
      "▁pa'": 6530,
      "digo": 6531,
      "▁rusia": 6532,
      "▁gordo": 6533,
      "▁masaje": 6534,
      "▁álbum": 6535,
      "▁pez": 6536,
      "▁entero": 6537,
      "mmm": 6538,
      "▁resca": 6539,
      "▁chab": 6540,
      "▁lás": 6541,
      "▁rodrí": 6542,
      "▁salido": 6543,
      "mita": 6544,
      "▁casual": 6545,
      "▁sr": 6546,
      "▁democrá": 6547,
      "▁fiestas": 6548,
      "▁perdí": 6549,
      "▁partida": 6550,
      "▁igualdad": 6551,
      "▁senta": 6552,
      "x.": 6553,
      "▁alterna": 6554,
      "▁rode": 6555,
      "▁perse": 6556,
      "45": 6557,
      "▁obvia": 6558,
      "▁abus": 6559,
      "▁mej": 6560,
      "▁coinci": 6561,
      "▁económico": 6562,
      "▁héro": 6563,
      "▁can't": 6564,
      "▁mana": 6565,
      "▁iv": 6566,
      "▁etique": 6567,
      "tulos": 6568,
      "ó.": 6569,
      "▁encontré": 6570,
      "▁you're": 6571,
      "▁supre": 6572,
      "tric": 6573,
      "▁nadie,": 6574,
      "▁locura": 6575,
      "▁entregar": 6576,
      "▁andan": 6577,
      "▁irresponsab": 6578,
      "▁proto": 6579,
      "▁construcción": 6580,
      "▁ponerme": 6581,
      "▁\"yo": 6582,
      "▁baloncesto": 6583,
      "▁billete": 6584,
      "▁john": 6585,
      "▁care": 6586,
      "▁pecho": 6587,
      "▁hubier": 6588,
      "▁tenían": 6589,
      "▁usu": 6590,
      "▁lóg": 6591,
      "▁probar": 6592,
      "▁adent": 6593,
      "▁jubi": 6594,
      "▁artista": 6595,
      "▁incon": 6596,
      "▁comunica": 6597,
      "ella": 6598,
      "▁sencil": 6599,
      "▁envidia": 6600,
      "▁jin": 6601,
      "▁consejos": 6602,
      "▁presencia": 6603,
      "90": 6604,
      "▁vez,": 6605,
      "▁\"re": 6606,
      "▁ilegal": 6607,
      "▁rosario": 6608,
      "▁ya,": 6609,
      "▁osea": 6610,
      "▁story": 6611,
      "▁servi": 6612,
      "▁ku": 6613,
      "isimo": 6614,
      "▁estres": 6615,
      "▁pones": 6616,
      "▁buscan": 6617,
      "▁devuel": 6618,
      "▁superior": 6619,
      "▁arena": 6620,
      "nas": 6621,
      "▁diez": 6622,
      "▁cuestión": 6623,
      "▁saliendo": 6624,
      "▁amor.": 6625,
      "ado.": 6626,
      "▁manifesta": 6627,
      "▁bole": 6628,
      "▁espalda": 6629,
      "▁use": 6630,
      "▁supuesto": 6631,
      "▁vieron": 6632,
      "▁conoci": 6633,
      "▁confor": 6634,
      "▁nadie.": 6635,
      "▁stra": 6636,
      "yen": 6637,
      "▁tomo": 6638,
      "▁hugo": 6639,
      "▁compañero": 6640,
      "▁gracias!": 6641,
      "▁sea,": 6642,
      "▁es.": 6643,
      "▁tenéis": 6644,
      "▁rodri": 6645,
      "▁aver": 6646,
      "▁inteligencia": 6647,
      "▁corta": 6648,
      "ccion": 6649,
      "▁ver,": 6650,
      "▁interpre": 6651,
      "▁cf": 6652,
      "▁ty": 6653,
      "▁vivien": 6654,
      "ced": 6655,
      "lita": 6656,
      "▁inteligente": 6657,
      "-3": 6658,
      "▁junta": 6659,
      "▁negocios": 6660,
      "▁larga": 6661,
      "▁rompe": 6662,
      "▁1000": 6663,
      "zi": 6664,
      "▁air": 6665,
      "▁cabo": 6666,
      "ipol": 6667,
      "▁enamorada": 6668,
      "iona": 6669,
      "▁hechos": 6670,
      "▁amistad": 6671,
      "▁pensamiento": 6672,
      "▁paraguay": 6673,
      "▁equivoca": 6674,
      "▁sobrevi": 6675,
      "70": 6676,
      "torno": 6677,
      "ise": 6678,
      "uido": 6679,
      "▁mejor,": 6680,
      "udes": 6681,
      "▁unico": 6682,
      "▁piñ": 6683,
      "▁querida": 6684,
      "▁roman": 6685,
      "med": 6686,
      "▁moder": 6687,
      "ved": 6688,
      "▁bern": 6689,
      "▁dr.": 6690,
      "▁ces": 6691,
      "▁haría": 6692,
      "▁cerdo": 6693,
      "▁sabia": 6694,
      "▁rar": 6695,
      "any": 6696,
      "▁claramente": 6697,
      "▁mm": 6698,
      "▁arras": 6699,
      "▁adoles": 6700,
      "▁legisla": 6701,
      "uelas": 6702,
      "▁things": 6703,
      "▁two": 6704,
      "▁diji": 6705,
      "gas,": 6706,
      "ñado": 6707,
      "▁señores": 6708,
      "▁juntas": 6709,
      "ppen": 6710,
      "▁tô": 6711,
      "▁cena": 6712,
      "ivo": 6713,
      "▁recuerdos": 6714,
      "▁periodismo": 6715,
      "▁permite": 6716,
      "▁hamb": 6717,
      "▁intento": 6718,
      "▁sitio": 6719,
      "jito": 6720,
      "▁conferencia": 6721,
      "▁testi": 6722,
      "▁favor.": 6723,
      "dillo": 6724,
      "▁someone": 6725,
      "▁deuda": 6726,
      "usti": 6727,
      "▁something": 6728,
      "▁more.": 6729,
      "▁conjun": 6730,
      "▁bicicle": 6731,
      "▁junior": 6732,
      "▁emba": 6733,
      "▁و": 6734,
      "▁restau": 6735,
      "▁libres": 6736,
      "▁300": 6737,
      "jen": 6738,
      "▁cool": 6739,
      "▁bay": 6740,
      "led": 6741,
      "▁piern": 6742,
      "▁santos": 6743,
      "yyy": 6744,
      "▁set": 6745,
      "▁familiares": 6746,
      "blos": 6747,
      "▁año,": 6748,
      "ross": 6749,
      "▁\"f": 6750,
      "▁iglesias": 6751,
      "▁cle": 6752,
      "▁refor": 6753,
      "▁homenaje": 6754,
      "ek": 6755,
      "▁año.": 6756,
      "zca": 6757,
      "▁gasolina": 6758,
      "doras": 6759,
      "▁perra": 6760,
      "▁tama": 6761,
      "▁recon": 6762,
      "▁py": 6763,
      "▁instru": 6764,
      "▁memes": 6765,
      "▁republ": 6766,
      "▁pendejos": 6767,
      "▁policías": 6768,
      "▁everyone": 6769,
      "▁gane": 6770,
      "▁delito": 6771,
      "▁jack": 6772,
      "▁propuesta": 6773,
      "▁dream": 6774,
      "cidio": 6775,
      "▁bello": 6776,
      "▁solidaridad": 6777,
      "▁conec": 6778,
      "▁2015": 6779,
      "▁enviar": 6780,
      "▁tremenda": 6781,
      "▁invita": 6782,
      "▁meme": 6783,
      "jate": 6784,
      "ei": 6785,
      "▁judicial": 6786,
      "aldo": 6787,
      "▁propa": 6788,
      "▁pacientes": 6789,
      "▁king": 6790,
      "▁expon": 6791,
      "▁ellos.": 6792,
      "▁infantil": 6793,
      "ja,": 6794,
      "▁alumnos": 6795,
      "▁malos": 6796,
      "iche": 6797,
      "▁clos": 6798,
      "▁nieve": 6799,
      "▁iban": 6800,
      "mio": 6801,
      "▁firma": 6802,
      "▁divi": 6803,
      "ones,": 6804,
      "lace": 6805,
      "uña": 6806,
      "▁yoongi": 6807,
      "▁uñas": 6808,
      "fon": 6809,
      "▁thing": 6810,
      "▁pagan": 6811,
      "▁españoles": 6812,
      "▁gratui": 6813,
      "▁insu": 6814,
      "tty": 6815,
      "video": 6816,
      "▁pata": 6817,
      "zamos": 6818,
      "▁javier": 6819,
      "▁habl": 6820,
      "▁dejamos": 6821,
      "▁pasaron": 6822,
      "▁aprue": 6823,
      "grantes": 6824,
      "▁recomiendo": 6825,
      "▁invierno": 6826,
      "▁asomb": 6827,
      "▁colores": 6828,
      "▁tranquila": 6829,
      "▁departa": 6830,
      "▁dime": 6831,
      "▁acceso": 6832,
      "▁herra": 6833,
      "▁presos": 6834,
      "▁box": 6835,
      "▁orien": 6836,
      "▁sana": 6837,
      "▁decisiones": 6838,
      "▁long": 6839,
      "▁nena": 6840,
      "▁acus": 6841,
      "▁compañía": 6842,
      "▁delincuentes": 6843,
      "bara": 6844,
      "▁pasada": 6845,
      "▁asqueros": 6846,
      "▁aí": 6847,
      "▁diputado": 6848,
      "▁ens": 6849,
      "▁dynamite": 6850,
      "▁¡el": 6851,
      "▁imbé": 6852,
      "▁ment": 6853,
      "▁contri": 6854,
      "▁plus": 6855,
      "▁ridículo": 6856,
      "▁podido": 6857,
      "idente": 6858,
      "▁iniciativa": 6859,
      "▁blog": 6860,
      "ife": 6861,
      "▁ganan": 6862,
      "ículos": 6863,
      "▁emilio": 6864,
      "cemos": 6865,
      "▁tía": 6866,
      "▁spotify": 6867,
      "▁matan": 6868,
      "tará": 6869,
      "▁crush": 6870,
      "▁alguno": 6871,
      "▁cuch": 6872,
      "▁materia": 6873,
      "▁peligro": 6874,
      "▁lucas": 6875,
      "▁laboral": 6876,
      "sa,": 6877,
      "▁sosten": 6878,
      "▁charla": 6879,
      "▁pérez": 6880,
      "▁elimina": 6881,
      "▁provo": 6882,
      "fore": 6883,
      "▁gigan": 6884,
      "28": 6885,
      "▁punta": 6886,
      "▁comparto": 6887,
      "▁confina": 6888,
      "tidos": 6889,
      "▁aeropu": 6890,
      "▁seguramente": 6891,
      "\"?": 6892,
      "▁tigre": 6893,
      "▁quedado": 6894,
      "ones.": 6895,
      "▁maltra": 6896,
      "jo,": 6897,
      "▁idiota": 6898,
      "▁batalla": 6899,
      "▁reyes": 6900,
      "▁support": 6901,
      "▁gover": 6902,
      "▁habia": 6903,
      "▁importan": 6904,
      "iere": 6905,
      "km": 6906,
      "▁juez": 6907,
      "▁alemania": 6908,
      "tar.": 6909,
      "▁demostrar": 6910,
      "▁dejes": 6911,
      "▁são": 6912,
      "▁estaremos": 6913,
      "▁deportivo": 6914,
      "▁publicidad": 6915,
      "▁debido": 6916,
      "▁deli": 6917,
      "▁adic": 6918,
      "▁dd": 6919,
      "▁disney": 6920,
      "▁veremos": 6921,
      "▁coisa": 6922,
      "▁album": 6923,
      "udar": 6924,
      "ante,": 6925,
      "▁proce": 6926,
      "hip": 6927,
      "▁participación": 6928,
      "▁habita": 6929,
      "▁ésta": 6930,
      "▁luchar": 6931,
      "26": 6932,
      "▁bull": 6933,
      "▁ufff": 6934,
      "rosa": 6935,
      "27": 6936,
      "▁formas": 6937,
      "vs": 6938,
      "▁gabri": 6939,
      "red": 6940,
      "▁seis": 6941,
      "▁tiran": 6942,
      "▁pedido": 6943,
      "árez": 6944,
      "olucion": 6945,
      "▁\"o": 6946,
      "▁many": 6947,
      "▁exten": 6948,
      "▁deter": 6949,
      "▁planta": 6950,
      "▁supongo": 6951,
      "▁parecen": 6952,
      "▁algo,": 6953,
      "▁perdiendo": 6954,
      "▁dominic": 6955,
      "▁corazon": 6956,
      "▁once": 6957,
      "▁kir": 6958,
      "mad": 6959,
      "▁lados": 6960,
      "▁técnico": 6961,
      "▁sín": 6962,
      "▁espectacular": 6963,
      "▁apare": 6964,
      "▁ques": 6965,
      "▁coming": 6966,
      "tar,": 6967,
      "▁necesit": 6968,
      "iciales": 6969,
      "▁sad": 6970,
      "▁wea": 6971,
      "▁destino": 6972,
      "▁guapo": 6973,
      "▁crecer": 6974,
      "▁bolson": 6975,
      "▁alba": 6976,
      "▁loren": 6977,
      "▁saluda": 6978,
      "▁pelea": 6979,
      "▁magia": 6980,
      "▁nariz": 6981,
      "▁gilipol": 6982,
      ")..": 6983,
      "▁taehy": 6984,
      "▁cuadrado": 6985,
      "▁ignorancia": 6986,
      "▁diseño": 6987,
      "▁podcas": 6988,
      "▁estés": 6989,
      "▁revolución": 6990,
      "▁ceja": 6991,
      "▁avión": 6992,
      "▁habían": 6993,
      "alth": 6994,
      "▁concl": 6995,
      "less": 6996,
      "▁peti": 6997,
      "▁usando": 6998,
      "▁pour": 6999,
      "eda": 7000,
      "▁hipó": 7001,
      "▁entienden": 7002,
      "▁expos": 7003,
      "▁activa": 7004,
      "/7": 7005,
      "▁viejos": 7006,
      "▁tratando": 7007,
      ":3": 7008,
      "▁playing": 7009,
      "ración": 7010,
      "▁enrique": 7011,
      "▁finales": 7012,
      "ball": 7013,
      "▁comercial": 7014,
      "▁consecuencias": 7015,
      "ught": 7016,
      "▁marido": 7017,
      "▁exactamente": 7018,
      "▁lazo": 7019,
      "▁universo": 7020,
      "▁american": 7021,
      "▁medica": 7022,
      "▁chá": 7023,
      "mnas": 7024,
      "▁hear": 7025,
      "▁redu": 7026,
      "▁lástima": 7027,
      "▁guitar": 7028,
      "▁ue": 7029,
      "-.": 7030,
      "pto": 7031,
      "▁6.": 7032,
      "ticular": 7033,
      "▁piedra": 7034,
      "▁st": 7035,
      "▁hospitales": 7036,
      "▁enser": 7037,
      "▁aclar": 7038,
      "▁ng": 7039,
      "▁contac": 7040,
      "án,": 7041,
      "▁argentino": 7042,
      "▁disponible!": 7043,
      "▁suda": 7044,
      "tiza": 7045,
      "▁cayó": 7046,
      "▁happen": 7047,
      "quete": 7048,
      "▁tranquilo": 7049,
      "▁ultra": 7050,
      "▁house": 7051,
      "▁herramien": 7052,
      "rael": 7053,
      "▁escribiendo": 7054,
      "pico": 7055,
      "▁⠀": 7056,
      "igna": 7057,
      "▁cosas.": 7058,
      "▁sé,": 7059,
      "▁ocurre": 7060,
      "▁melo": 7061,
      "cks": 7062,
      "▁¿al": 7063,
      "▁orgullosa": 7064,
      "▁transpar": 7065,
      "▁desea": 7066,
      "▁entro": 7067,
      "▁queso": 7068,
      "▁smi": 7069,
      "▁facil": 7070,
      "dona": 7071,
      "ém": 7072,
      "▁escena": 7073,
      "▁formación": 7074,
      "▁sensación": 7075,
      "▁jajajajaj": 7076,
      "▁públicos": 7077,
      "▁recuperar": 7078,
      "▁actua": 7079,
      "▁errores": 7080,
      "▁pudiera": 7081,
      "timi": 7082,
      "▁odia": 7083,
      "om": 7084,
      "▁friend": 7085,
      "▁put": 7086,
      "▁\"in": 7087,
      "▁hahahaha": 7088,
      "cá": 7089,
      "isas": 7090,
      "nera": 7091,
      "dores.": 7092,
      "▁hero": 7093,
      "▁horror": 7094,
      "▁identif": 7095,
      "▁concurso": 7096,
      "▁asamblea": 7097,
      "▁disfra": 7098,
      "cé": 7099,
      "▁diálogo": 7100,
      "▁pelu": 7101,
      "▁president": 7102,
      "▁sorpresa": 7103,
      "hua": 7104,
      "try": 7105,
      "▁nam": 7106,
      "▁rever": 7107,
      "▁psicó": 7108,
      "▁vuelven": 7109,
      "chen": 7110,
      "▁supues": 7111,
      "las.": 7112,
      "▁monte": 7113,
      "▁libertadores": 7114,
      "▁venezuela.": 7115,
      "▁adió": 7116,
      "▁pusieron": 7117,
      "▁aure": 7118,
      "▁peli": 7119,
      "xo": 7120,
      "ast": 7121,
      "▁hey": 7122,
      "▁desayun": 7123,
      "▁atras": 7124,
      "des,": 7125,
      "▁musica": 7126,
      "donos": 7127,
      "▁botella": 7128,
      "▁seres": 7129,
      "▁it.": 7130,
      "▁tome": 7131,
      "▁colum": 7132,
      "▁invent": 7133,
      "▁chau": 7134,
      "▁\"con": 7135,
      "▁?.": 7136,
      "mmy": 7137,
      "▁cartel": 7138,
      "▁(no": 7139,
      "▁resumen": 7140,
      "cuando": 7141,
      "▁tribun": 7142,
      "▁esperaba": 7143,
      "▁competi": 7144,
      "▁labu": 7145,
      "▁inmedia": 7146,
      "gulo": 7147,
      "▁tendencia": 7148,
      "gil": 7149,
      "▁guapa": 7150,
      "▁emplea": 7151,
      "▁echo": 7152,
      "▁defin": 7153,
      "▁under": 7154,
      "▁continua": 7155,
      "▁guad": 7156,
      "▁tatua": 7157,
      "▁personajes": 7158,
      "úl": 7159,
      "▁primar": 7160,
      "▁humana": 7161,
      "▁rival": 7162,
      "▁summer": 7163,
      "▁inven": 7164,
      "▁calder": 7165,
      "▁verla": 7166,
      "▁compa": 7167,
      "▁harta": 7168,
      "▁peores": 7169,
      "▁quedé": 7170,
      "▁baile": 7171,
      "▁expul": 7172,
      "▁mereces": 7173,
      "pue": 7174,
      "▁cadena": 7175,
      "▁prime": 7176,
      "▁dejando": 7177,
      "▁mismas": 7178,
      "opera": 7179,
      "▁aumento": 7180,
      "▁pobreza": 7181,
      "▁prioridad": 7182,
      "▁electr": 7183,
      "▁pendiente": 7184,
      "▁qué?": 7185,
      "▁naturaleza": 7186,
      "ald": 7187,
      "▁barr": 7188,
      "▁mexicanos": 7189,
      "▁área": 7190,
      "▁acho": 7191,
      "uri": 7192,
      "▁eras": 7193,
      ":0": 7194,
      "▁aprende": 7195,
      "▁rivera": 7196,
      "▁util": 7197,
      "▁¿es": 7198,
      "▁abrazar": 7199,
      "▁hard": 7200,
      "▁2020.": 7201,
      "▁hacerse": 7202,
      "▁venezolano": 7203,
      "▁sergio": 7204,
      "ele": 7205,
      "▁tão": 7206,
      "▁later": 7207,
      "▁daba": 7208,
      "▁enfrentar": 7209,
      "▁mañana,": 7210,
      "▁reconocer": 7211,
      "▁¡gracias": 7212,
      "▁assim": 7213,
      "▁felipe": 7214,
      "▁atle": 7215,
      "iss": 7216,
      "▁experien": 7217,
      "▁él.": 7218,
      "▁fb": 7219,
      "▁vídeos": 7220,
      "▁hate": 7221,
      "▁pá": 7222,
      "▁tonto": 7223,
      "▁urib": 7224,
      "▁vos,": 7225,
      "▁duermo": 7226,
      "con_": 7227,
      "▁gimnas": 7228,
      "ciles": 7229,
      "▁36": 7230,
      "▁uwu": 7231,
      "ezas": 7232,
      "▁before": 7233,
      "▁capaci": 7234,
      "▁m.": 7235,
      "▁olor": 7236,
      "▁fraude": 7237,
      "▁existir": 7238,
      "pop": 7239,
      "▁pers": 7240,
      "▁tmb": 7241,
      "▁decís": 7242,
      "▁fm": 7243,
      "▁muertes": 7244,
      "▁compras": 7245,
      "▁verdadera": 7246,
      "▁actor": 7247,
      "▁damos": 7248,
      "▁sombrero": 7249,
      "▁asesin": 7250,
      "▁lidera": 7251,
      "▁tera": 7252,
      "▁\"i": 7253,
      "▁acaban": 7254,
      "vision": 7255,
      "▁ey": 7256,
      "▁gonna": 7257,
      "▁tienda": 7258,
      "▁pur": 7259,
      "▁completamente": 7260,
      "▁fit": 7261,
      "ano,": 7262,
      "▁inep": 7263,
      "▁reve": 7264,
      "▁goool": 7265,
      "▁virgen": 7266,
      "▁nal": 7267,
      "fir": 7268,
      "▁fumar": 7269,
      "▁iphone": 7270,
      "gr": 7271,
      "▁manga": 7272,
      "▁unido": 7273,
      "▁diablo": 7274,
      "▁puente": 7275,
      "▁valores": 7276,
      "...y": 7277,
      "vida": 7278,
      "▁met": 7279,
      "▁taehyung": 7280,
      "▁contagios": 7281,
      "▁posición": 7282,
      "▁corrupto": 7283,
      "▁own": 7284,
      "mbra": 7285,
      "▁pit": 7286,
      "▁coordina": 7287,
      "▁generación": 7288,
      "▁\"que": 7289,
      "▁arranca": 7290,
      "gers": 7291,
      "▁pequeños": 7292,
      "▁monó": 7293,
      "ham": 7294,
      "n.": 7295,
      "▁alas": 7296,
      "▁jen": 7297,
      "taba": 7298,
      "▁ill": 7299,
      "▁drama": 7300,
      "▁conme": 7301,
      "▁episodio": 7302,
      "▁dispos": 7303,
      "▁gobiernos": 7304,
      "▁chiqui": 7305,
      "▁maca": 7306,
      "▁dea": 7307,
      "ja.": 7308,
      "▁llamada": 7309,
      "▁¡qué": 7310,
      "▁tier": 7311,
      "ões": 7312,
      "▁descen": 7313,
      "▁kill": 7314,
      "v.": 7315,
      "▁morning": 7316,
      "ness": 7317,
      "2,": 7318,
      "ueve": 7319,
      "▁dato": 7320,
      "▁:3": 7321,
      "▁imagín": 7322,
      "▁miran": 7323,
      "▁:/": 7324,
      "▁oferta": 7325,
      "▁sacan": 7326,
      "▁vivimos": 7327,
      "ali": 7328,
      "▁turno": 7329,
      "graph": 7330,
      "imas": 7331,
      "▁7.": 7332,
      "▁informar": 7333,
      "▁è": 7334,
      "teras": 7335,
      "▁mirada": 7336,
      "▁amazon": 7337,
      "ped": 7338,
      "▁podrá": 7339,
      "zy": 7340,
      "▁sit": 7341,
      "▁victor": 7342,
      "▁retro": 7343,
      "timo": 7344,
      "▁cy": 7345,
      "▁israel": 7346,
      "▁pag": 7347,
      "▁ora": 7348,
      "▁mg": 7349,
      "box": 7350,
      "▁jose": 7351,
      "▁bendiciones": 7352,
      "▁figu": 7353,
      "pir": 7354,
      "▁retweet": 7355,
      "▁oy": 7356,
      "▁podrían": 7357,
      "come": 7358,
      "▁respuestas": 7359,
      "▁federal": 7360,
      "▁ine": 7361,
      "▁perfecta": 7362,
      "▁aristemo": 7363,
      "tely": 7364,
      "_a": 7365,
      "▁ec": 7366,
      "▁fues": 7367,
      "▁tarjeta": 7368,
      "▁razones": 7369,
      "queta": 7370,
      "▁terminó": 7371,
      "dicion": 7372,
      "▁remo": 7373,
      "▁sufrir": 7374,
      "▁papas": 7375,
      "últi": 7376,
      "▁dispar": 7377,
      "▁everything": 7378,
      "▁fli": 7379,
      "▁andrés": 7380,
      "▁gloria": 7381,
      "▁num": 7382,
      "▁privado": 7383,
      "mpe": 7384,
      "▁pantalla": 7385,
      "▁velo": 7386,
      "▁cuader": 7387,
      "gías": 7388,
      "▁days": 7389,
      "▁lectura": 7390,
      "▁tanto,": 7391,
      "▁aviso": 7392,
      "itarios": 7393,
      "encial": 7394,
      "▁jajs": 7395,
      "▁bran": 7396,
      "▁llegando": 7397,
      "▁aper": 7398,
      "▁trabajo.": 7399,
      "▁bala": 7400,
      "▁you.": 7401,
      "▁sufri": 7402,
      "▁frio": 7403,
      "▁centros": 7404,
      "▁temperatura": 7405,
      "▁pasen": 7406,
      "rias": 7407,
      "▁lavar": 7408,
      "clo": 7409,
      "▁darme": 7410,
      "fl": 7411,
      "▁més": 7412,
      "▁igual,": 7413,
      "sa.": 7414,
      "▁agradez": 7415,
      "▁militares": 7416,
      "tivo.": 7417,
      "▁tara": 7418,
      "▁sinceramente": 7419,
      "▁ml": 7420,
      "▁pico": 7421,
      "▁hacerle": 7422,
      "pool": 7423,
      "gb": 7424,
      "▁(s": 7425,
      "▁gonzá": 7426,
      "▁veía": 7427,
      "▁listen": 7428,
      "▁pero,": 7429,
      "▁kim": 7430,
      "▁dió": 7431,
      "▁2,": 7432,
      "ance": 7433,
      "▁vez.": 7434,
      "▁juventud": 7435,
      "▁incor": 7436,
      "ieve": 7437,
      "▁199": 7438,
      "ificar": 7439,
      "):": 7440,
      "▁vuelto": 7441,
      "▁ejér": 7442,
      "▁jjaja,": 7443,
      "▁hijue": 7444,
      "ik": 7445,
      "▁constante": 7446,
      "▁ب": 7447,
      "▁carna": 7448,
      "las,": 7449,
      "▁brutal": 7450,
      "fil": 7451,
      "ñé": 7452,
      "ano.": 7453,
      "izando": 7454,
      "▁mentir": 7455,
      "▁comenzar": 7456,
      "▁mix": 7457,
      "▁ellos,": 7458,
      "▁eval": 7459,
      "▁recibe": 7460,
      "▁mtvlafandom": 7461,
      "▁audiencia": 7462,
      "▁satis": 7463,
      "▁últimamente": 7464,
      "▁irse": 7465,
      "▁deportiva": 7466,
      "▁posibilidad": 7467,
      "▁criticar": 7468,
      "▁thats": 7469,
      "▁historia.": 7470,
      "▁discri": 7471,
      "cela": 7472,
      "▁uy": 7473,
      "▁empec": 7474,
      "▁descub": 7475,
      "▁habil": 7476,
      "▁gorda": 7477,
      "as?": 7478,
      "iados": 7479,
      "miento.": 7480,
      "▁pelotuda": 7481,
      "▁aler": 7482,
      "▁gobierno,": 7483,
      "▁pop": 7484,
      "▁sebas": 7485,
      "▁cens": 7486,
      "▁gym": 7487,
      "▁ideal": 7488,
      "ics": 7489,
      "▁comprome": 7490,
      "▁incomp": 7491,
      "tage": 7492,
      "▁nuevamente": 7493,
      "play": 7494,
      "▁maravilla": 7495,
      "▁max": 7496,
      "▁demuestra": 7497,
      "ique": 7498,
      "dible": 7499,
      "▁ciclo": 7500,
      "▁adap": 7501,
      "▁ayunta": 7502,
      "_con_": 7503,
      "29": 7504,
      "▁mencion": 7505,
      "gether": 7506,
      "aa,": 7507,
      "▁ultimo": 7508,
      "▁armas": 7509,
      "▁bravo": 7510,
      "▁reconocimiento": 7511,
      "▁contrato": 7512,
      "▁vz": 7513,
      "▁quedarse": 7514,
      "▁pollo": 7515,
      "ágri": 7516,
      "▁suelo": 7517,
      "▁fox": 7518,
      "▁mac": 7519,
      "▁(+": 7520,
      "▁mato": 7521,
      "▁old": 7522,
      "▁falso": 7523,
      "▁ocho": 7524,
      "▁gobierno.": 7525,
      "▁voluntad": 7526,
      "▁ficar": 7527,
      "▁tos": 7528,
      "▁reino": 7529,
      "▁fuente": 7530,
      "▁eso?": 7531,
      "▁paul": 7532,
      "▁¿se": 7533,
      "▁registra": 7534,
      "▁test": 7535,
      "▁relaciones": 7536,
      "▁putas": 7537,
      "pr": 7538,
      "tara": 7539,
      "▁galle": 7540,
      "▁rendir": 7541,
      "▁estaré": 7542,
      "▁mim": 7543,
      "▁mexicano": 7544,
      "▁oa": 7545,
      "▁ii": 7546,
      "kw": 7547,
      "▁poten": 7548,
      "pula": 7549,
      "▁atender": 7550,
      "▁mtvlaparejaj": 7551,
      "iam": 7552,
      "▁niñ": 7553,
      "▁infier": 7554,
      "él": 7555,
      "▁particular": 7556,
      "tienen": 7557,
      "mus": 7558,
      "▁emoción": 7559,
      "▁eva": 7560,
      "juliantina": 7561,
      "madre": 7562,
      "▁vergon": 7563,
      "▁mtvlaparejajuliantina": 7564,
      "▁ayyy": 7565,
      "▁rol": 7566,
      "▁parec": 7567,
      "▁lágri": 7568,
      "▁accidente": 7569,
      "als": 7570,
      "icando": 7571,
      "▁ox": 7572,
      "▁\"te": 7573,
      "▁exc": 7574,
      "▁vulnera": 7575,
      "mino": 7576,
      "▁aho": 7577,
      "rt": 7578,
      "▁nefas": 7579,
      "uales": 7580,
      "ísimas": 7581,
      "▁fifa": 7582,
      "▁mtvlafandomjuliantina": 7583,
      "rey": 7584,
      "▁giras": 7585,
      "f.": 7586,
      "▁todavia": 7587,
      "igual": 7588,
      "urar": 7589,
      "▁polític": 7590,
      "▁copas": 7591,
      "▁amas": 7592,
      "deces": 7593,
      "▁mora": 7594,
      "▁quar": 7595,
      "ritu": 7596,
      "▁darte": 7597,
      "▁\"h": 7598,
      "▁torre": 7599,
      "▁personas,": 7600,
      "cano": 7601,
      "▁nervio": 7602,
      "▁esposa": 7603,
      "list": 7604,
      "▁gustar": 7605,
      "talidad": 7606,
      ":5": 7607,
      "▁temporar": 7608,
      "▁artes": 7609,
      "▁destro": 7610,
      "▁¿cuál": 7611,
      "izada": 7612,
      "▁sába": 7613,
      "bras": 7614,
      "▁bec": 7615,
      "▁ilu": 7616,
      "▁revista": 7617,
      "bles.": 7618,
      "cieron": 7619,
      "▁guay": 7620,
      "▁zor": 7621,
      "▁bolas": 7622,
      "cia.": 7623,
      "▁\"¿": 7624,
      "▁those": 7625,
      "▁tot": 7626,
      "▁¿de": 7627,
      "▁gola": 7628,
      "dell": 7629,
      "lano": 7630,
      "▁-.": 7631,
      "▁españa.": 7632,
      "▁él,": 7633,
      "dencias": 7634,
      "▁ate": 7635,
      "▁enseñar": 7636,
      "▁conflic": 7637,
      "aj": 7638,
      "▁hagamos": 7639,
      "▁bols": 7640,
      "▁sna": 7641,
      "▁#1": 7642,
      "plo": 7643,
      "▁supone": 7644,
      "▁ordenador": 7645,
      "▁gracio": 7646,
      "▁challen": 7647,
      "▁tatu": 7648,
      "▁cura": 7649,
      "▁pibes": 7650,
      "▁semana.": 7651,
      "▁urge": 7652,
      "fes": 7653,
      "ito.": 7654,
      "▁agarrar": 7655,
      "▁alimentos": 7656,
      "▁austral": 7657,
      "▁wanna": 7658,
      "▁domi": 7659,
      "▁intera": 7660,
      "▁encuesta": 7661,
      "▁2019.": 7662,
      "in.": 7663,
      "▁programas": 7664,
      "ling": 7665,
      "▁leído": 7666,
      "▁acusa": 7667,
      "tion.": 7668,
      "▁demostra": 7669,
      "▁reca": 7670,
      "▁atro": 7671,
      "▁white": 7672,
      "arlo": 7673,
      "enda": 7674,
      "▁madrid.": 7675,
      "▁tech": 7676,
      "▁rein": 7677,
      "▁gue": 7678,
      "▁conocimiento": 7679,
      "án.": 7680,
      "▁roba": 7681,
      "▁hur": 7682,
      "▁intereses": 7683,
      "▁apos": 7684,
      "tiz": 7685,
      "cero": 7686,
      "▁이": 7687,
      "▁construir": 7688,
      "▁escrib": 7689,
      "cripción": 7690,
      "ita,": 7691,
      "mul": 7692,
      "▁zur": 7693,
      "▁desemp": 7694,
      "▁miro": 7695,
      "▁%": 7696,
      "▁tér": 7697,
      "▁olvido": 7698,
      "▁financi": 7699,
      "▁nombres": 7700,
      "hyun": 7701,
      "▁thro": 7702,
      "▁transmi": 7703,
      "kers": 7704,
      "crí": 7705,
      "▁family": 7706,
      "▁latina": 7707,
      "▁¡¡¡": 7708,
      "▁letra": 7709,
      "▁recuerden": 7710,
      "▁comis": 7711,
      "2017": 7712,
      "▁mt": 7713,
      "quez": 7714,
      "▁castro": 7715,
      "▁dela": 7716,
      "▁cute": 7717,
      "ario.": 7718,
      "jó": 7719,
      "▁violates": 7720,
      "jo.": 7721,
      "▁sospe": 7722,
      "ani": 7723,
      "▁amiga,": 7724,
      "▁emocional": 7725,
      "▁socio": 7726,
      "▁spi": 7727,
      "key": 7728,
      "▁breve": 7729,
      "▁women": 7730,
      "▁wacho": 7731,
      "▁salí": 7732,
      "▁\"lo": 7733,
      "▁ly": 7734,
      "body": 7735,
      "pris": 7736,
      "▁し": 7737,
      "illos": 7738,
      "▁despertador": 7739,
      "▁single": 7740,
      "▁triunfo": 7741,
      "▁vaina": 7742,
      "▁another": 7743,
      "▁cojones": 7744,
      "▁guaid": 7745,
      "dical": 7746,
      "▁bienestar": 7747,
      "▁directamente": 7748,
      "▁hambur": 7749,
      "culos": 7750,
      "▁millón": 7751,
      "fit": 7752,
      "fr": 7753,
      "▁caro": 7754,
      "▁extrema": 7755,
      "▁sacri": 7756,
      "gica": 7757,
      "▁inci": 7758,
      "ezca": 7759,
      "des.": 7760,
      "▁compor": 7761,
      "▁reserva": 7762,
      "▁lindas": 7763,
      "▁ts": 7764,
      "▁alzada": 7765,
      "▁difundir": 7766,
      "▁avent": 7767,
      "▁oportunidades": 7768,
      "▁sorprende": 7769,
      "▁tax": 7770,
      "▁publicado": 7771,
      "tado.": 7772,
      "▁mexican": 7773,
      "▁enserio": 7774,
      "▁plataforma": 7775,
      "▁sr.": 7776,
      "▁pidió": 7777,
      "▁preso": 7778,
      "▁ny": 7779,
      "cia,": 7780,
      "▁né": 7781,
      "▁mendo": 7782,
      "▁policy.": 7783,
      "▁sco": 7784,
      "ctora": 7785,
      "▁infierno": 7786,
      "▁temporarily": 7787,
      "▁manifes": 7788,
      "▁evid": 7789,
      "éndome": 7790,
      "▁comentar": 7791,
      "▁abrazos": 7792,
      "▁pessoa": 7793,
      "▁mich": 7794,
      "pa.": 7795,
      "▁que?": 7796,
      "▁dejas": 7797,
      "500": 7798,
      "▁invitamos": 7799,
      "▁arroz": 7800,
      "orada": 7801,
      "▁:((": 7802,
      "▁mat": 7803,
      "¡¡": 7804,
      "▁convertir": 7805,
      "▁unavailable": 7806,
      "▁obviamente": 7807,
      "▁independencia": 7808,
      "▁fire": 7809,
      "▁rodríguez": 7810,
      "▁tendremos": 7811,
      "▁aprendi": 7812,
      "▁regalar": 7813,
      "chner": 7814,
      "▁comparte": 7815,
      "▁rechazo": 7816,
      "▁suje": 7817,
      "▁eterno": 7818,
      "▁división": 7819,
      "▁venezuela,": 7820,
      "temala": 7821,
      "▁epi": 7822,
      "gri": 7823,
      "dría": 7824,
      "▁に": 7825,
      "▁aureola": 7826,
      "▁ñ": 7827,
      "▁quizá": 7828,
      "▁aliment": 7829,
      "▁:v": 7830,
      "kas": 7831,
      "▁respetar": 7832,
      "in,": 7833,
      "▁absur": 7834,
      "▁seme": 7835,
      "▁trato": 7836,
      "▁novela": 7837,
      "▁cnco": 7838,
      "▁matri": 7839,
      "tate": 7840,
      "▁unfollowed": 7841,
      "▁foo": 7842,
      "▁insis": 7843,
      "▁crecimiento": 7844,
      "▁contex": 7845,
      "▁usan": 7846,
      "dable": 7847,
      "iales": 7848,
      "▁franco": 7849,
      "▁ken": 7850,
      "▁desn": 7851,
      "▁ór": 7852,
      "▁familia,": 7853,
      "▁pea": 7854,
      "▁¿ya": 7855,
      "▁conocido": 7856,
      "▁critica": 7857,
      "33": 7858,
      "▁personas.": 7859,
      "▁doing": 7860,
      "cui": 7861,
      "▁estando": 7862,
      "▁dead": 7863,
      "▁conversación": 7864,
      "▁droga": 7865,
      "vip": 7866,
      "mentación": 7867,
      "▁desaf": 7868,
      "▁inversión": 7869,
      "▁asesino": 7870,
      "▁latin": 7871,
      "▁semestre": 7872,
      "▁bat": 7873,
      "▁menores": 7874,
      "▁obs": 7875,
      "▁bolude": 7876,
      "▁generar": 7877,
      "▁humo": 7878,
      "▁amén": 7879,
      "▁prevención": 7880,
      "iel": 7881,
      "milar": 7882,
      "chada": 7883,
      "▁libera": 7884,
      "▁yea": 7885,
      "▁japon": 7886,
      "▁that's": 7887,
      "lera": 7888,
      "chool": 7889,
      "▁fantasma": 7890,
      "▁sentimientos": 7891,
      "▁decir,": 7892,
      "lon": 7893,
      "▁(1": 7894,
      "▁anci": 7895,
      "▁escal": 7896,
      "▁presidencial": 7897,
      "▁también,": 7898,
      "▁campeonato": 7899,
      "▁zara": 7900,
      "▁clientes": 7901,
      "▁ningun": 7902,
      "tivo,": 7903,
      "▁itali": 7904,
      "▁tap": 7905,
      "▁eco": 7906,
      "▁cristiano": 7907,
      "▁sobra": 7908,
      "▁cau": 7909,
      "▁miercoles": 7910,
      "▁persona,": 7911,
      "▁aña": 7912,
      "▁aguanto": 7913,
      "▁presupuesto": 7914,
      "▁industria": 7915,
      "cord": 7916,
      "▁ak": 7917,
      "▁infer": 7918,
      "viene": 7919,
      "▁respira": 7920,
      "▁together": 7921,
      "▁constitucional": 7922,
      "▁ode": 7923,
      "▁guarda": 7924,
      "mex": 7925,
      "ports": 7926,
      "▁temb": 7927,
      "▁away": 7928,
      "▁nación": 7929,
      "▁quí": 7930,
      "ary": 7931,
      "cies": 7932,
      "▁mamar": 7933,
      "▁cuantas": 7934,
      "miento,": 7935,
      "/3": 7936,
      "▁llevamos": 7937,
      "▁oficina": 7938,
      "bieron": 7939,
      "▁girasol": 7940,
      "▁labios": 7941,
      "▁beat": 7942,
      "▁\"un": 7943,
      "▁olimp": 7944,
      "▁hand": 7945,
      "',": 7946,
      "▁sabiendo": 7947,
      "▁salud,": 7948,
      "▁cafe": 7949,
      "time": 7950,
      "▁papi": 7951,
      "-4": 7952,
      "▁mtvlafandomjuliantinafans": 7953,
      "▁trop": 7954,
      "tud": 7955,
      "▁transmisión": 7956,
      "vando": 7957,
      "▁health": 7958,
      "▁física": 7959,
      "▁previa": 7960,
      "▁nba": 7961,
      "▁rafael": 7962,
      "▁colabora": 7963,
      "▁leyes": 7964,
      "▁cup": 7965,
      "▁números": 7966,
      "wh": 7967,
      "▁which": 7968,
      "▁vesti": 7969,
      "▁sumar": 7970,
      "tás": 7971,
      "▁compre": 7972,
      "▁artistas": 7973,
      "▁guatemala": 7974,
      "200": 7975,
      "▁tok": 7976,
      "▁locos": 7977,
      "▁bicicleta": 7978,
      "▁izquier": 7979,
      "▁evan": 7980,
      "▁foro": 7981,
      "▁sanidad": 7982,
      "(?": 7983,
      "▁ministra": 7984,
      "▁tuviera": 7985,
      "▁liver": 7986,
      "▁ilusión": 7987,
      "▁producto": 7988,
      "▁0.": 7989,
      "far": 7990,
      "▁mi.": 7991,
      "ctima": 7992,
      "▁boa": 7993,
      "▁alqui": 7994,
      "▁adentro": 7995,
      "▁regla": 7996,
      "▁tú,": 7997,
      "viste": 7998,
      "▁kids": 7999,
      "▁enamorar": 8000,
      "▁podrán": 8001,
      "▁conejo": 8002,
      "▁zu": 8003,
      "▁10.": 8004,
      "▁gent": 8005,
      "▁sara": 8006,
      "▁since": 8007,
      "▁escrito": 8008,
      "▁cuales": 8009,
      "▁conoces": 8010,
      "▁tay": 8011,
      "guas": 8012,
      "▁piernas": 8013,
      "▁aburri": 8014,
      "▁afecta": 8015,
      "▁¿en": 8016,
      "á,": 8017,
      "▁partes": 8018,
      "▁mover": 8019,
      "▁farma": 8020,
      "▁infra": 8021,
      "▁costu": 8022,
      "▁bolí": 8023,
      "▁hacerte": 8024,
      "▁protesta": 8025,
      "▁line": 8026,
      "▁pési": 8027,
      "nor": 8028,
      "cres": 8029,
      "▁s.": 8030,
      "▁arm": 8031,
      "▁edificio": 8032,
      "▁fuimos": 8033,
      "▁tigres": 8034,
      "▁nube": 8035,
      "▁me.": 8036,
      "▁caminar": 8037,
      "▁chino": 8038,
      "▁rema": 8039,
      "▁youre": 8040,
      "cher": 8041,
      "▁esperemos": 8042,
      "▁dir": 8043,
      "▁primeras": 8044,
      "▁mean": 8045,
      "▁impresionante": 8046,
      "▁imple": 8047,
      "▁relacion": 8048,
      "▁curr": 8049,
      "tico.": 8050,
      "▁humanidad": 8051,
      "▁regional": 8052,
      "▁organización": 8053,
      "desa": 8054,
      "▁manejo": 8055,
      "▁méxico.": 8056,
      "▁caracter": 8057,
      "▁habéis": 8058,
      "▁jan": 8059,
      "▁ensa": 8060,
      "▁nacional.": 8061,
      "▁pér": 8062,
      "▁hen": 8063,
      "nia": 8064,
      "▁monóculo": 8065,
      "▁vete": 8066,
      "▁moreno": 8067,
      "▁nomina": 8068,
      "▁tóx": 8069,
      "▁pisto": 8070,
      "▁deser": 8071,
      "▁comercio": 8072,
      "▁dueño": 8073,
      "▁nervios": 8074,
      "▁bic": 8075,
      "▁birra": 8076,
      "▁ella.": 8077,
      "▁camion": 8078,
      "▁pases": 8079,
      "hael": 8080,
      "?...": 8081,
      "▁ído": 8082,
      "mía": 8083,
      "exual": 8084,
      "▁aquí,": 8085,
      "▁anime": 8086,
      "▁palacio": 8087,
      "¿¿": 8088,
      "▁víctima": 8089,
      "▁doming": 8090,
      "▁conserva": 8091,
      "▁inmun": 8092,
      "▁tipos": 8093,
      "▁soon": 8094,
      "tiles": 8095,
      "▁lider": 8096,
      "▁porta": 8097,
      "▁gif": 8098,
      "tly": 8099,
      "▁bene": 8100,
      "▁55": 8101,
      "▁agui": 8102,
      "eada": 8103,
      "▁alejandro": 8104,
      "▁bolu": 8105,
      "▁salvo": 8106,
      "▁aja": 8107,
      "▁ambien": 8108,
      "▁pense": 8109,
      "▁sede": 8110,
      "▁dt": 8111,
      "iness": 8112,
      "▁pud": 8113,
      "▁comunicado": 8114,
      "▁pasos": 8115,
      "▁acha": 8116,
      "▁ranking": 8117,
      "▁seamos": 8118,
      "taste": 8119,
      "▁check": 8120,
      "gaste": 8121,
      "fc": 8122,
      "game": 8123,
      "▁vacun": 8124,
      "▁repos": 8125,
      "▁enti": 8126,
      "▁dark": 8127,
      "▁histórico": 8128,
      "sea": 8129,
      "▁pay": 8130,
      "▁enfo": 8131,
      "▁encuentran": 8132,
      "▁cus": 8133,
      "▁mostrador": 8134,
      "▁pep": 8135,
      "▁busco": 8136,
      "▁correcto": 8137,
      "▁young": 8138,
      "▁arreglar": 8139,
      "▁comunista": 8140,
      "▁shor": 8141,
      "▁haci": 8142,
      "▁forever": 8143,
      "▁obses": 8144,
      "▁marcel": 8145,
      "▁piñera": 8146,
      "▁matter": 8147,
      "▁provoca": 8148,
      "▁resu": 8149,
      "ias,": 8150,
      "▁podcast": 8151,
      "▁decirte": 8152,
      "▁remember": 8153,
      "▁kirchner": 8154,
      "▁maravilloso": 8155,
      "nic": 8156,
      "/o": 8157,
      "final": 8158,
      "▁méxico,": 8159,
      "▁empresarios": 8160,
      "▁actuar": 8161,
      "▁33": 8162,
      "▁vencer": 8163,
      "▁wish": 8164,
      "▁str": 8165,
      "▁andalucía": 8166,
      "▁delante": 8167,
      "▁8.": 8168,
      "▁controlar": 8169,
      "▁gradu": 8170,
      "▁pica": 8171,
      "quien": 8172,
      "▁chat": 8173,
      "▁retras": 8174,
      "▁carmen": 8175,
      "▁ney": 8176,
      "▁miembros": 8177,
      "bon": 8178,
      "▁alu": 8179,
      "ías,": 8180,
      "???.": 8181,
      "▁martínez": 8182,
      "▁lindos": 8183,
      "▁vayas": 8184,
      "▁espacios": 8185,
      "tiva.": 8186,
      "▁frases": 8187,
      "porque": 8188,
      "▁198": 8189,
      "▁veracru": 8190,
      "▁find": 8191,
      "▁pilo": 8192,
      "quiere": 8193,
      "▁hahahahaha": 8194,
      "ibilidad": 8195,
      "▁estreno": 8196,
      "▁pinches": 8197,
      "▁además,": 8198,
      "▁season": 8199,
      "ioso": 8200,
      "▁atlé": 8201,
      "▁dios.": 8202,
      "▁aguantar": 8203,
      "dias": 8204,
      "monos": 8205,
      "▁dri": 8206,
      "▁quise": 8207,
      "▁negar": 8208,
      "▁puertas": 8209,
      "▁tun": 8210,
      "▁logro": 8211,
      "▁conocen": 8212,
      "▁cobra": 8213,
      "tell": 8214,
      "▁nicolás": 8215,
      "▁pac": 8216,
      "▁dire": 8217,
      "▁beneficio": 8218,
      "mora": 8219,
      "▁sentí": 8220,
      "▁falsa": 8221,
      "▁adiós": 8222,
      "▁podéis": 8223,
      "▁alien": 8224,
      "▁alegra": 8225,
      "▁james": 8226,
      "▁noch": 8227,
      "encia.": 8228,
      "íz": 8229,
      "▁mandan": 8230,
      "▁regresar": 8231,
      "morrow": 8232,
      "▁competencia": 8233,
      "▁arrep": 8234,
      "▁beber": 8235,
      "▁cortar": 8236,
      "mart": 8237,
      "▁esto?": 8238,
      "▁ready": 8239,
      "▁tikto": 8240,
      "▁coopera": 8241,
      "▁self": 8242,
      "▁intentando": 8243,
      "▁ella,": 8244,
      "▁parcial": 8245,
      "▁caminando": 8246,
      "▁estru": 8247,
      "▁convir": 8248,
      "boy": 8249,
      "/a": 8250,
      "▁boludo": 8251,
      "▁familia.": 8252,
      "▁gestion": 8253,
      "▁boluda": 8254,
      "▁ia": 8255,
      "▁adivin": 8256,
      "▁contestar": 8257,
      "▁instituciones": 8258,
      "titos": 8259,
      "▁copi": 8260,
      "▁carita": 8261,
      "▁levante": 8262,
      "capacidad": 8263,
      "▁hecha": 8264,
      "fec": 8265,
      "▁formar": 8266,
      "▁debut": 8267,
      "▁delicio": 8268,
      "▁soñar": 8269,
      "▁primo": 8270,
      "icos,": 8271,
      "▁denunciar": 8272,
      "ables": 8273,
      "l,": 8274,
      "▁estudios": 8275,
      "▁gano": 8276,
      "▁while": 8277,
      "hout": 8278,
      "encia,": 8279,
      "▁empat": 8280,
      "▁bendiga": 8281,
      "▁momento,": 8282,
      "▁entendí": 8283,
      "▁castillo": 8284,
      "teriores": 8285,
      "▁tq": 8286,
      "▁empe": 8287,
      "▁posted": 8288,
      "▁letras": 8289,
      "gamos": 8290,
      "iano": 8291,
      "ordin": 8292,
      "▁agradezco": 8293,
      "▁bloqueo": 8294,
      "▁hamburgues": 8295,
      "g,": 8296,
      "jal": 8297,
      "▁mire": 8298,
      "▁mañana.": 8299,
      "▁toman": 8300,
      "▁march": 8301,
      "▁indigna": 8302,
      "▁日": 8303,
      "▁sebasti": 8304,
      "▁ah,": 8305,
      "▁cohe": 8306,
      "▁bui": 8307,
      "▁date": 8308,
      "▁geor": 8309,
      "ficos": 8310,
      "cas,": 8311,
      "▁empiez": 8312,
      "▁muriendo": 8313,
      "▁alarma": 8314,
      "▁monter": 8315,
      "▁dá": 8316,
      "▁columna": 8317,
      "▁venden": 8318,
      "▁ciel": 8319,
      "▁ponerse": 8320,
      "fal": 8321,
      "▁cliente": 8322,
      "▁legen": 8323,
      "▁hipócri": 8324,
      "▁alianza": 8325,
      "▁oso": 8326,
      "▁\"mi": 8327,
      "▁liverpool": 8328,
      "▁empezamos": 8329,
      "▁colaboración": 8330,
      "...no": 8331,
      "▁efecto": 8332,
      "▁concre": 8333,
      "▁blue": 8334,
      "▁espí": 8335,
      "▁juegan": 8336,
      "▁bolsonaro": 8337,
      "▁audi": 8338,
      "▁2014": 8339,
      "▁residen": 8340,
      "▁mejora": 8341,
      "▁gastar": 8342,
      "▁xddd": 8343,
      "▁ricos": 8344,
      "ksks": 8345,
      "▁fracaso": 8346,
      "▁choice": 8347,
      "▁commun": 8348,
      "▁||": 8349,
      "▁correo": 8350,
      "▁soul": 8351,
      "▁geno": 8352,
      "▁pueblos": 8353,
      "adas": 8354,
      "▁resolver": 8355,
      "▁gatos": 8356,
      "▁compu": 8357,
      "▁milan": 8358,
      "tado,": 8359,
      "▁despi": 8360,
      "▁apple": 8361,
      "▁arqui": 8362,
      "▁fala": 8363,
      "▁máxima": 8364,
      "▁prove": 8365,
      "later": 8366,
      "▁sm": 8367,
      "▁argentinos": 8368,
      "▁persona.": 8369,
      "▁princesa": 8370,
      "▁propó": 8371,
      "1,": 8372,
      "▁actos": 8373,
      "▁wel": 8374,
      "▁lma": 8375,
      "▁indí": 8376,
      "▁oper": 8377,
      "▁month": 8378,
      "▁bolivar": 8379,
      "▁plane": 8380,
      "▁raya": 8381,
      "▁patrio": 8382,
      "▁motor": 8383,
      "▁fuertes": 8384,
      "▁descanso": 8385,
      "tame": 8386,
      "▁archi": 8387,
      "jud": 8388,
      "▁tomorrow": 8389,
      "▁sonre": 8390,
      "▁hallow": 8391,
      "▁cuaderno": 8392,
      "▁portada": 8393,
      "▁xx": 8394,
      "▁ricar": 8395,
      "▁mood": 8396,
      "▁concer": 8397,
      "▁sty": 8398,
      "▁masco": 8399,
      "▁beneficios": 8400,
      "▁álvar": 8401,
      "neces": 8402,
      "/20": 8403,
      "▁inseguridad": 8404,
      "real": 8405,
      "▁americ": 8406,
      "▁frun": 8407,
      "▁nothing": 8408,
      "▁inútil": 8409,
      "▁semana,": 8410,
      "▁mande": 8411,
      "▁tenis": 8412,
      "▁chávez": 8413,
      "▁vuestra": 8414,
      "▁alrededor": 8415,
      "yu": 8416,
      "▁empiezo": 8417,
      "▁quejar": 8418,
      "▁promes": 8419,
      "▁aeropuerto": 8420,
      "▁change": 8421,
      "▁ramos": 8422,
      "▁yourself": 8423,
      "mix": 8424,
      "▁head": 8425,
      "▁espi": 8426,
      "▁tempo": 8427,
      "▁intro": 8428,
      "▁ejército": 8429,
      "▁rut": 8430,
      "▁vecino": 8431,
      "view": 8432,
      "▁siete": 8433,
      "▁negocia": 8434,
      "▁lives": 8435,
      "▁mind": 8436,
      "▁¡bu": 8437,
      "frica": 8438,
      "▁dad": 8439,
      "▁despierta": 8440,
      "▁empu": 8441,
      "▁llamo": 8442,
      "▁ray": 8443,
      "▁poe": 8444,
      "▁bs": 8445,
      "▁cover": 8446,
      "wor": 8447,
      "derecha": 8448,
      "▁aument": 8449,
      "▁propuestas": 8450,
      "ve.": 8451,
      "▁creí": 8452,
      "▁estrés": 8453,
      "▁lets": 8454,
      "▁sigues": 8455,
      "▁ddhh": 8456,
      "▁ee.": 8457,
      "▁jardín": 8458,
      "entemente": 8459,
      "▁fuese": 8460,
      "▁avance": 8461,
      "▁podés": 8462,
      "▁ahora.": 8463,
      "▁permiso": 8464,
      "▁pato": 8465,
      "▁estra": 8466,
      "tico,": 8467,
      "▁sienten": 8468,
      "▁salgan": 8469,
      "ario,": 8470,
      "▁chur": 8471,
      "▁ahí,": 8472,
      "tana": 8473,
      "▁escuelas": 8474,
      "▁group": 8475,
      "▁andro": 8476,
      "lido": 8477,
      "▁españa,": 8478,
      "▁defiende": 8479,
      "▁pass": 8480,
      "▁wonder": 8481,
      "jara": 8482,
      "▁estupidez": 8483,
      "▁queriendo": 8484,
      "▁apoyando": 8485,
      "▁cabron": 8486,
      "lit": 8487,
      "▁parecido": 8488,
      "▁rei": 8489,
      "▁lorenzo": 8490,
      "cho,": 8491,
      "▁líderes": 8492,
      "pa,": 8493,
      "▁madre,": 8494,
      "pping": 8495,
      "quieres": 8496,
      "▁escor": 8497,
      "▁fundamental": 8498,
      "▁coronavirus.": 8499,
      "▁school": 8500,
      "▁lil": 8501,
      "▁\"p": 8502,
      "▁क": 8503,
      "▁llegaron": 8504,
      "▁alla": 8505,
      "▁quemar": 8506,
      "▁ciudadano": 8507,
      "▁subs": 8508,
      "▁rique": 8509,
      "▁estad": 8510,
      "▁despre": 8511,
      "zón": 8512,
      "▁tocó": 8513,
      "▁fondos": 8514,
      "▁data": 8515,
      "▁00": 8516,
      "▁ambas": 8517,
      "▁servir": 8518,
      "▁tuvieron": 8519,
      "▁autoridad": 8520,
      "▁jueces": 8521,
      "▁getting": 8522,
      "▁megá": 8523,
      "▁aisla": 8524,
      "ng": 8525,
      "▁nova": 8526,
      "▁salieron": 8527,
      "▁racing": 8528,
      "▁abuso": 8529,
      "▁chance": 8530,
      "▁continuar": 8531,
      "▁experi": 8532,
      "▁expli": 8533,
      "▁artic": 8534,
      "▁descri": 8535,
      "clar": 8536,
      "▁terra": 8537,
      "arnos": 8538,
      "▁subi": 8539,
      "▁secretario": 8540,
      "▁rd": 8541,
      "▁pensado": 8542,
      "▁jajajajajajaja": 8543,
      "▁román": 8544,
      "▁trabajan": 8545,
      "▁departamento": 8546,
      "venil": 8547,
      "▁biblio": 8548,
      "_19": 8549,
      "▁camila": 8550,
      "▁ritmo": 8551,
      "teles": 8552,
      "▁(que": 8553,
      "▁ceño": 8554,
      "▁colectivo": 8555,
      "▁alegro": 8556,
      "ché": 8557,
      "▁aplicar": 8558,
      "▁crítica": 8559,
      "▁arrancar": 8560,
      "▁¡mu": 8561,
      "▁abro": 8562,
      "▁hea": 8563,
      "▁megáfono": 8564,
      "entes.": 8565,
      "▁stic": 8566,
      "á.": 8567,
      "▁ajus": 8568,
      "▁gabriel": 8569,
      "cau": 8570,
      "jitos": 8571,
      "aan": 8572,
      "▁medicina": 8573,
      "abo": 8574,
      "-s": 8575,
      "didas": 8576,
      "▁guys": 8577,
      "▁igual.": 8578,
      "▁madrugada": 8579,
      "▁barbar": 8580,
      "▁respir": 8581,
      "▁cortes": 8582,
      "fra": 8583,
      "▁caen": 8584,
      "▁jode": 8585,
      "tamiento": 8586,
      "▁ganando": 8587,
      "▁evolución": 8588,
      "▁respec": 8589,
      "▁true": 8590,
      "▁eliminar": 8591,
      "amos": 8592,
      "▁sexy": 8593,
      "ifi": 8594,
      "▁ayudas": 8595,
      "▁sinver": 8596,
      "▁clín": 8597,
      "▁pau": 8598,
      "▁noche,": 8599,
      "nie": 8600,
      "íamos": 8601,
      "▁perfor": 8602,
      "unya": 8603,
      "▁broma": 8604,
      "▁nan": 8605,
      "▁cans": 8606,
      "▁similar": 8607,
      "▁cerra": 8608,
      "▁milit": 8609,
      "▁socor": 8610,
      "▁halloween": 8611,
      "▁bús": 8612,
      "▁decían": 8613,
      "▁papás": 8614,
      "uco": 8615,
      "▁escenario": 8616,
      "▁amazing": 8617,
      "▁impe": 8618,
      "▁falla": 8619,
      "▁final.": 8620,
      "▁break": 8621,
      "bb": 8622,
      "▁vil": 8623,
      "▁amenaza": 8624,
      "▁volví": 8625,
      "▁ghvip": 8626,
      "▁engan": 8627,
      "▁mantiene": 8628,
      "▁mí,": 8629,
      "▁tou": 8630,
      "▁extraordin": 8631,
      "▁lot": 8632,
      "▁adoro": 8633,
      "minis": 8634,
      "▁sanitario": 8635,
      "▁madrid,": 8636,
      "dimos": 8637,
      "gena": 8638,
      "▁acabó": 8639,
      "▁razon": 8640,
      "▁consumo": 8641,
      "rie": 8642,
      "rillo": 8643,
      "▁brazos": 8644,
      "▁torres": 8645,
      "▁maripos": 8646,
      "hd": 8647,
      "▁rich": 8648,
      "▁elección": 8649,
      "▁ganador": 8650,
      "▁jjaja.": 8651,
      "▁cristo": 8652,
      "▁\"al": 8653,
      "▁banca": 8654,
      "▁vestido": 8655,
      "▁desen": 8656,
      "▁arrepen": 8657,
      "▁granada": 8658,
      "▁zoo": 8659,
      "▁_": 8660,
      "▁vaso": 8661,
      "▁bangtan": 8662,
      "▁cumplen": 8663,
      "▁convocatoria": 8664,
      "▁sure": 8665,
      "▁regala": 8666,
      "▁enlace": 8667,
      "uestas": 8668,
      "▁secreto": 8669,
      "▁actú": 8670,
      "▁policia": 8671,
      "▁qe": 8672,
      "▁japonés": 8673,
      "n,": 8674,
      "▁apertura": 8675,
      "▁momento.": 8676,
      "▁perrito": 8677,
      "jante": 8678,
      "▁miami": 8679,
      "gara": 8680,
      "▁kan": 8681,
      "pado": 8682,
      "▁porfavor": 8683,
      "▁cit": 8684,
      "▁mori": 8685,
      "▁chef": 8686,
      "▁gasto": 8687,
      "▁lima": 8688,
      "guar": 8689,
      "▁yall": 8690,
      "ios,": 8691,
      "▁mames": 8692,
      "▁aprovecha": 8693,
      "▁alcanza": 8694,
      "oor": 8695,
      "▁dj": 8696,
      "emb": 8697,
      "▁pasaba": 8698,
      "thers": 8699,
      "va,": 8700,
      "▁dile": 8701,
      "pora": 8702,
      "▁llevó": 8703,
      "▁pieza": 8704,
      "▁acre": 8705,
      "tendo": 8706,
      "▁regular": 8707,
      "▁covid_19": 8708,
      "▁9.": 8709,
      "▁inspira": 8710,
      "▁cour": 8711,
      "▁bolívar": 8712,
      "▁guardar": 8713,
      "▁exist": 8714,
      "▁bitch": 8715,
      "quía": 8716,
      "ritos": 8717,
      "▁ofrece": 8718,
      "▁avisa": 8719,
      "▁quedaron": 8720,
      "▁thread": 8721,
      "▁amanecer": 8722,
      "▁von": 8723,
      "▁enfren": 8724,
      "▁matando": 8725,
      "▁cataluña": 8726,
      "▁borrar": 8727,
      "▁quedarme": 8728,
      "▁aprox": 8729,
      "▁trián": 8730,
      "ão,": 8731,
      "▁quiso": 8732,
      "▁dormí": 8733,
      "▁3,": 8734,
      "▁metros": 8735,
      "▁compartimos": 8736,
      "▁tio": 8737,
      "itat": 8738,
      "tain": 8739,
      "▁nice": 8740,
      "orio": 8741,
      "▁empol": 8742,
      "▁administración": 8743,
      "ments": 8744,
      "▁conex": 8745,
      "▁huellas": 8746,
      "cados": 8747,
      "jajajaj": 8748,
      "▁excusa": 8749,
      "▁ps4": 8750,
      "side": 8751,
      "▁impon": 8752,
      "direc": 8753,
      "▁jesus": 8754,
      "▁bueno.": 8755,
      "▁through": 8756,
      "▁depresión": 8757,
      "▁disc": 8758,
      "▁amores": 8759,
      "cés": 8760,
      "▁apelli": 8761,
      "▁fora": 8762,
      "▁ina": 8763,
      "▁soledad": 8764,
      "▁passa": 8765,
      "▁vendo": 8766,
      "▁firme": 8767,
      "gico": 8768,
      "▁vueltas": 8769,
      "▁distra": 8770,
      "▁empecé": 8771,
      "▁utilizar": 8772,
      "▁:.": 8773,
      "!\"": 8774,
      "▁challenge": 8775,
      "▁onu": 8776,
      "▁lady": 8777,
      "com": 8778,
      "bando": 8779,
      "▁perre": 8780,
      "hot": 8781,
      "deras": 8782,
      "▁tic": 8783,
      "▁\"ma": 8784,
      "▁class": 8785,
      "▁aprovechar": 8786,
      "cilla": 8787,
      "▁demues": 8788,
      "▁oaxa": 8789,
      "▁importar": 8790,
      "▁estáis": 8791,
      "▁memori": 8792,
      "▁llevas": 8793,
      "▁ponte": 8794,
      "entes,": 8795,
      "▁➡": 8796,
      "▁entrenador": 8797,
      "dados": 8798,
      "▁gü": 8799,
      "▁haré": 8800,
      "▁lleve": 8801,
      "▁bye": 8802,
      "▁michael": 8803,
      "▁¡feliz": 8804,
      "▁vuestro": 8805,
      "▁paciente": 8806,
      "▁infancia": 8807,
      "▁culpable": 8808,
      "vy": 8809,
      "▁impro": 8810,
      "▁dou": 8811,
      "▁código": 8812,
      "▁corazón.": 8813,
      "▁zonas": 8814,
      "▁en:": 8815,
      "▁asal": 8816,
      "▁paral": 8817,
      "▁mascarillas": 8818,
      "ene": 8819,
      "▁preguntan": 8820,
      "▁jorna": 8821,
      "migos": 8822,
      "▁04": 8823,
      "▁imbe": 8824,
      "bó": 8825,
      "icos.": 8826,
      "guiendo": 8827,
      "▁url.": 8828,
      "▁sentimiento": 8829,
      "▁uber": 8830,
      "▁baila": 8831,
      "▁hicimos": 8832,
      "▁vue": 8833,
      "▁xa": 8834,
      "tiva,": 8835,
      "▁aux": 8836,
      "dicional": 8837,
      "▁ayuntamiento": 8838,
      "▁misión": 8839,
      "▁eas": 8840,
      "mitas": 8841,
      "ensa": 8842,
      "▁nunca.": 8843,
      "▁historia,": 8844,
      "▁cerro": 8845,
      "▁águi": 8846,
      "▁anos": 8847,
      "▁differ": 8848,
      "▁puedas": 8849,
      "▁responsables": 8850,
      "▁rumbo": 8851,
      "▁plo": 8852,
      "lóg": 8853,
      "ino.": 8854,
      "▁justin": 8855,
      "▁quedas": 8856,
      "▁popul": 8857,
      "▁limpieza": 8858,
      "▁incendio": 8859,
      "▁guaidó": 8860,
      "▁¡que": 8861,
      "guenza": 8862,
      "quín": 8863,
      "▁callar": 8864,
      "▁impacto": 8865,
      "▁unir": 8866,
      "▁juvenil": 8867,
      "▁triángulo": 8868,
      "▁prox": 8869,
      "▁trabal": 8870,
      "▁cómpl": 8871,
      "wo": 8872,
      "▁costumbre": 8873,
      "▁flu": 8874,
      "▁child": 8875,
      "plica": 8876,
      "▁tt": 8877,
      "▁hacer.": 8878,
      "▁tuits": 8879,
      "▁d.": 8880,
      "▁--": 8881,
      "dillas": 8882,
      "▁kor": 8883,
      "75": 8884,
      "▁financia": 8885,
      "▁dijiste": 8886,
      "▁(19": 8887,
      "▁okay": 8888,
      "toso": 8889,
      "▁pls": 8890,
      "bien": 8891,
      "▁empiezan": 8892,
      "uesto": 8893,
      "▁salimos": 8894,
      "metro": 8895,
      "▁exitos": 8896,
      "▁inscri": 8897,
      "▁playlist": 8898,
      "▁amigui": 8899,
      "hasta": 8900,
      "▁civi": 8901,
      "▁observa": 8902,
      "▁levanto": 8903,
      "?¿": 8904,
      "▁orgulloso": 8905,
      "▁ff": 8906,
      "▁hues": 8907,
      "▁cm": 8908,
      "▁carr": 8909,
      "▁sch": 8910,
      "▁escuche": 8911,
      "▁desperté": 8912,
      "▁partido.": 8913,
      "▁pelotudos": 8914,
      "▁despierto": 8915,
      "▁recibi": 8916,
      "▁renta": 8917,
      "▁evo": 8918,
      "▁switch": 8919,
      "▁algo.": 8920,
      "▁fing": 8921,
      "▁salario": 8922,
      "visa": 8923,
      "▁mutual": 8924,
      "▁silla": 8925,
      "▁bienvenido": 8926,
      "▁enemigo": 8927,
      "▁terren": 8928,
      "▁pris": 8929,
      "▁wall": 8930,
      "▁feliz.": 8931,
      "yor": 8932,
      "▁propios": 8933,
      "▁asombrada": 8934,
      "▁bis": 8935,
      "▁york": 8936,
      "▁alguém": 8937,
      "comun": 8938,
      "▁transfor": 8939,
      "▁aveces": 8940,
      "3,": 8941,
      "▁\"the": 8942,
      "▁caras": 8943,
      "tancias": 8944,
      "iros": 8945,
      "tha": 8946,
      "▁fueran": 8947,
      "▁novo": 8948,
      "▁laura": 8949,
      "ita.": 8950,
      "▁modi": 8951,
      "▁nel": 8952,
      "fortun": 8953,
      "▁menos.": 8954,
      "▁hala": 8955,
      "sp": 8956,
      "▁congra": 8957,
      "▁deportes": 8958,
      "▁pueblo.": 8959,
      "▁fos": 8960,
      "▁without": 8961,
      "▁preocupada": 8962,
      "ário": 8963,
      "cturas": 8964,
      "▁cuentan": 8965,
      "▁sirven": 8966,
      "▁ax": 8967,
      "▁cierra": 8968,
      "▁start": 8969,
      "américa": 8970,
      "rones": 8971,
      "▁encantan": 8972,
      "▁perdona": 8973,
      "▁eterna": 8974,
      "▁ayudan": 8975,
      "▁fico": 8976,
      "▁android": 8977,
      "▁putos": 8978,
      "▁carnaval": 8979,
      "▁atacar": 8980,
      "▁proud": 8981,
      "ady": 8982,
      "▁comenta": 8983,
      "▁water": 8984,
      "ta?": 8985,
      "▁imbécil": 8986,
      "ned": 8987,
      "gem": 8988,
      "▁porra": 8989,
      "▁empollón": 8990,
      "▁autoesti": 8991,
      "▁times": 8992,
      "quista": 8993,
      "▁esla": 8994,
      "▁empezando": 8995,
      "▁decidir": 8996,
      "▁nació": 8997,
      "▁namjo": 8998,
      "ulos": 8999,
      "▁done": 9000,
      "▁try": 9001,
      "tim": 9002,
      "▁entreten": 9003,
      "▁feliz,": 9004,
      "▁difici": 9005,
      "trui": 9006,
      "▁united": 9007,
      "▁actualización": 9008,
      "▁abuelo": 9009,
      "▁gráfica": 9010,
      "▁influen": 9011,
      "▁eventos": 9012,
      "▁documental": 9013,
      "▁natal": 9014,
      "live": 9015,
      "ertos": 9016,
      "▁presidencia": 9017,
      "▁ajena": 9018,
      "ladas": 9019,
      "▁lado,": 9020,
      "ónico": 9021,
      "▁olvides": 9022,
      "▁taylor": 9023,
      "dea": 9024,
      "▁dictador": 9025,
      "▁yaaa": 9026,
      "▁merda": 9027,
      "▁excus": 9028,
      "▁artist": 9029,
      "▁estado.": 9030,
      "▁stal": 9031,
      "▁lujo": 9032,
      "▁queja": 9033,
      "▁orte": 9034,
      "▁chel": 9035,
      "▁roberto": 9036,
      "▁believe": 9037,
      "ricul": 9038,
      "▁gla": 9039,
      "▁instituto": 9040,
      "▁sle": 9041,
      "its": 9042,
      "▁depo": 9043,
      "▁medell": 9044,
      "uto": 9045,
      "ino,": 9046,
      "▁(en": 9047,
      "▁oí": 9048,
      "▁madre.": 9049,
      "▁nct": 9050,
      "undar": 9051,
      "rla": 9052,
      "▁\"las": 9053,
      "▁soñé": 9054,
      "temos": 9055,
      "oro": 9056,
      "así": 9057,
      "▁jugue": 9058,
      "▁い": 9059,
      "▁gustavo": 9060,
      "▁neymar": 9061,
      "▁rebel": 9062,
      "▁hinchas": 9063,
      "▁honduras": 9064,
      "▁catalan": 9065,
      "▁secu": 9066,
      "▁cigar": 9067,
      "▁crimen": 9068,
      "▁ciudades": 9069,
      "▁comienzo": 9070,
      "▁adecu": 9071,
      "▁rabia": 9072,
      "micas": 9073,
      "izan": 9074,
      "▁talk": 9075,
      "▁hubieran": 9076,
      "▁coco": 9077,
      "▁400": 9078,
      "▁caball": 9079,
      "▁aaaa": 9080,
      "▁revolucion": 9081,
      "▁kind": 9082,
      "▁humedad": 9083,
      "44": 9084,
      "▁precioso": 9085,
      "▁rub": 9086,
      "sible": 9087,
      "▁espíritu": 9088,
      "onso": 9089,
      "▁territorio": 9090,
      "▁sentar": 9091,
      "▁brasile": 9092,
      "▁abogado": 9093,
      "▁comenzó": 9094,
      "▁obri": 9095,
      "ías.": 9096,
      "▁portugal": 9097,
      "▁e.": 9098,
      "▁esquina": 9099,
      "▁gonzález": 9100,
      "cidas": 9101,
      "▁aa": 9102,
      "▁confiar": 9103,
      "laciones": 9104,
      "▁menos,": 9105,
      "indo": 9106,
      "▁fin,": 9107,
      "reas": 9108,
      "▁figura": 9109,
      "▁antic": 9110,
      "▁traje": 9111,
      "▁candidatos": 9112,
      "tismo": 9113,
      "▁valiente": 9114,
      "▁prisión": 9115,
      "▁verdad?": 9116,
      "▁urb": 9117,
      "▁ball": 9118,
      "▁twitch": 9119,
      "▁escla": 9120,
      "▁tráfico": 9121,
      "▁sigamos": 9122,
      "va.": 9123,
      "▁genio": 9124,
      "▁tendrán": 9125,
      "▁deu": 9126,
      "▁deca": 9127,
      "pink": 9128,
      "▁necesitaba": 9129,
      "▁reba": 9130,
      "▁intervención": 9131,
      "!?": 9132,
      "kkk": 9133,
      "▁convo": 9134,
      "▁contribu": 9135,
      "▁asustada": 9136,
      "▁torta": 9137,
      "ural": 9138,
      "vide": 9139,
      "▁pastel": 9140,
      "bles,": 9141,
      "▁tern": 9142,
      "grá": 9143,
      "sss": 9144,
      "▁campeones": 9145,
      "▁quema": 9146,
      "▁ingreso": 9147,
      "▁block": 9148,
      "▁despa": 9149,
      "▁queen": 9150,
      "▁el.": 9151,
      "▁\"e": 9152,
      "▁asegura": 9153,
      "▁relig": 9154,
      "▁impunidad": 9155,
      "▁empleados": 9156,
      "▁alcanzar": 9157,
      "▁chinga": 9158,
      "vol": 9159,
      "▁abiertas": 9160,
      "▁deberías": 9161,
      "...a": 9162,
      "▁vicepres": 9163,
      "▁meet": 9164,
      "▁conocí": 9165,
      "▁ganamos": 9166,
      "▁jsjsjs": 9167,
      "▁fé": 9168,
      "▁paz.": 9169,
      "tria": 9170,
      "▁enseñ": 9171,
      "dale": 9172,
      "▁pego": 9173,
      "▁viajes": 9174,
      "▁luci": 9175,
      "▁core": 9176,
      "▁cifras": 9177,
      "citos": 9178,
      "▁llegada": 9179,
      "▁registro": 9180,
      "▁paté": 9181,
      "▁razón,": 9182,
      "ética": 9183,
      "es?": 9184,
      "▁explicación": 9185,
      "▁horas.": 9186,
      "▁name": 9187,
      "▁benefici": 9188,
      "sidades": 9189,
      "▁cross": 9190,
      "▁bañar": 9191,
      "▁cuban": 9192,
      "lio": 9193,
      "▁naz": 9194,
      "▁verás": 9195,
      "▁urban": 9196,
      "▁ini": 9197,
      "▁presidenta": 9198,
      "▁poes": 9199,
      "▁preocup": 9200,
      "▁escuchado": 9201,
      "vada": 9202,
      "▁podrás": 9203,
      "▁you,": 9204,
      "▁mála": 9205,
      "▁estudiando": 9206,
      "oo,": 9207,
      "▁against": 9208,
      "▁sky": 9209,
      "▁around": 9210,
      "▁catalunya": 9211,
      "▁puestos": 9212,
      "▁atlético": 9213,
      "▁sam": 9214,
      "▁manz": 9215,
      "▁crista": 9216,
      "▁costo": 9217,
      "▁estarán": 9218,
      "▁fica": 9219,
      "▁ricardo": 9220,
      "▁estou": 9221,
      "í,": 9222,
      "▁asesinos": 9223,
      "▁destruir": 9224,
      "▁barra": 9225,
      "▁¿quieres": 9226,
      "jita": 9227,
      "tias": 9228,
      "▁privada": 9229,
      "▁streaming": 9230,
      "▁portá": 9231,
      "▁espn": 9232,
      "ione": 9233,
      "ın": 9234,
      "▁sound": 9235,
      "▁light": 9236,
      "▁tempor": 9237,
      "▁adri": 9238,
      "▁dieta": 9239,
      "▁flamen": 9240,
      "▁salud.": 9241,
      "▁hil": 9242,
      "▁fechas": 9243,
      "▁guitarra": 9244,
      "▁tarde,": 9245,
      "▁jamas": 9246,
      "jeje": 9247,
      "imiento": 9248,
      "48": 9249,
      "▁contando": 9250,
      "▁pack": 9251,
      "dada": 9252,
      "▁join": 9253,
      "pio": 9254,
      "▁compré": 9255,
      "▁wi": 9256,
      "▁arries": 9257,
      "▁investigar": 9258,
      "▁resuel": 9259,
      "ason": 9260,
      "▁viz": 9261,
      "▁jajajajajajajajajaja": 9262,
      "▁existencia": 9263,
      "mín": 9264,
      "dónde": 9265,
      "▁faltar": 9266,
      "▁interro": 9267,
      "tte": 9268,
      "▁bff": 9269,
      "▁sorte": 9270,
      "▁must": 9271,
      "▁agricul": 9272,
      "▁animo": 9273,
      "▁atien": 9274,
      "▁latest": 9275,
      "▁tranquilidad": 9276,
      "▁credi": 9277,
      "▁inaugura": 9278,
      "▁ira": 9279,
      "▁wr": 9280,
      "▁defendiendo": 9281,
      "▁lobo": 9282,
      "zaron": 9283,
      "▁subo": 9284,
      "ência": 9285,
      "▁sientes": 9286,
      "▁traicion": 9287,
      "mes,": 9288,
      "tl": 9289,
      "éndole": 9290,
      "▁ver.": 9291,
      "▁huele": 9292,
      "35": 9293,
      "▁igualmente": 9294,
      "▁tirando": 9295,
      "▁pese": 9296,
      "▁trendy": 9297,
      "▁opciones": 9298,
      "▁eslabón": 9299,
      "▁xfa": 9300,
      "▁drogas": 9301,
      "▁argentina.": 9302,
      "▁cohete": 9303,
      "der.": 9304,
      "ou": 9305,
      "▁regu": 9306,
      "micos": 9307,
      "▁propósito": 9308,
      "▁visión": 9309,
      "▁gritar": 9310,
      "▁dl": 9311,
      "▁implica": 9312,
      "▁uc": 9313,
      "▁mr": 9314,
      "▁no...": 9315,
      "▁mark": 9316,
      "▁hablen": 9317,
      "▁robaron": 9318,
      "▁quito": 9319,
      "▁preparado": 9320,
[...]
